{
  "version": "1.0",
  "truncation": null,
  "padding": null,
  "added_tokens": [
    {
      "id": 0,
      "content": "<s>",
      "single_word": false,
      "lstrip": false,
      "rstrip": false,
      "normalized": false,
      "special": true
    },
    {
      "id": 1,
      "content": "</s>",
      "single_word": false,
      "lstrip": false,
      "rstrip": false,
      "normalized": false,
      "special": true
    },
    {
      "id": 2,
      "content": "<unk>",
      "single_word": false,
      "lstrip": false,
      "rstrip": false,
      "normalized": false,
      "special": true
    },
    {
      "id": 3,
      "content": "<pad>",
      "single_word": false,
      "lstrip": false,
      "rstrip": false,
      "normalized": false,
      "special": true
    },
    {
      "id": 4,
      "content": "<mask>",
      "single_word": false,
      "lstrip": false,
      "rstrip": false,
      "normalized": false,
      "special": true
    },
    {
      "id": 5,
      "content": "<cls>",
      "single_word": false,
      "lstrip": false,
      "rstrip": false,
      "normalized": false,
      "special": true
    },
    {
      "id": 6,
      "content": "<sep>",
      "single_word": false,
      "lstrip": false,
      "rstrip": false,
      "normalized": false,
      "special": true
    }
  ],
  "normalizer": null,
  "pre_tokenizer": {
    "type": "ByteLevel",
    "add_prefix_space": true,
    "trim_offsets": true,
    "use_regex": true
  },
  "post_processor": {
    "type": "TemplateProcessing",
    "single": [
      {
        "SpecialToken": {
          "id": "<s>",
          "type_id": 0
        }
      },
      {
        "Sequence": {
          "id": "A",
          "type_id": 0
        }
      },
      {
        "SpecialToken": {
          "id": "</s>",
          "type_id": 0
        }
      }
    ],
    "pair": [
      {
        "SpecialToken": {
          "id": "<s>",
          "type_id": 0
        }
      },
      {
        "Sequence": {
          "id": "A",
          "type_id": 0
        }
      },
      {
        "SpecialToken": {
          "id": "</s>",
          "type_id": 0
        }
      },
      {
        "SpecialToken": {
          "id": "</s>",
          "type_id": 0
        }
      },
      {
        "Sequence": {
          "id": "B",
          "type_id": 0
        }
      },
      {
        "SpecialToken": {
          "id": "</s>",
          "type_id": 0
        }
      }
    ],
    "special_tokens": {
      "</s>": {
        "id": "</s>",
        "ids": [
          1
        ],
        "tokens": [
          "</s>"
        ]
      },
      "<cls>": {
        "id": "<cls>",
        "ids": [
          5
        ],
        "tokens": [
          "<cls>"
        ]
      },
      "<mask>": {
        "id": "<mask>",
        "ids": [
          4
        ],
        "tokens": [
          "<mask>"
        ]
      },
      "<pad>": {
        "id": "<pad>",
        "ids": [
          3
        ],
        "tokens": [
          "<pad>"
        ]
      },
      "<s>": {
        "id": "<s>",
        "ids": [
          0
        ],
        "tokens": [
          "<s>"
        ]
      },
      "<sep>": {
        "id": "<sep>",
        "ids": [
          6
        ],
        "tokens": [
          "<sep>"
        ]
      },
      "<unk>": {
        "id": "<unk>",
        "ids": [
          2
        ],
        "tokens": [
          "<unk>"
        ]
      }
    }
  },
  "decoder": {
    "type": "ByteLevel",
    "add_prefix_space": true,
    "trim_offsets": true,
    "use_regex": true
  },
  "model": {
    "type": "BPE",
    "dropout": null,
    "unk_token": "<unk>",
    "continuing_subword_prefix": null,
    "end_of_word_suffix": null,
    "fuse_unk": false,
    "byte_fallback": false,
    "ignore_merges": false,
    "vocab": {
      "<s>": 0,
      "</s>": 1,
      "<unk>": 2,
      "<pad>": 3,
      "<mask>": 4,
      "<cls>": 5,
      "<sep>": 6,
      "!": 7,
      "\"": 8,
      "#": 9,
      "$": 10,
      "%": 11,
      "&": 12,
      "'": 13,
      "(": 14,
      ")": 15,
      "*": 16,
      "+": 17,
      ",": 18,
      "-": 19,
      ".": 20,
      "/": 21,
      "0": 22,
      "1": 23,
      "2": 24,
      "3": 25,
      "4": 26,
      "5": 27,
      "6": 28,
      "7": 29,
      "8": 30,
      "9": 31,
      ":": 32,
      ";": 33,
      "<": 34,
      "=": 35,
      ">": 36,
      "?": 37,
      "@": 38,
      "A": 39,
      "B": 40,
      "C": 41,
      "D": 42,
      "E": 43,
      "F": 44,
      "G": 45,
      "H": 46,
      "I": 47,
      "J": 48,
      "K": 49,
      "L": 50,
      "M": 51,
      "N": 52,
      "O": 53,
      "P": 54,
      "Q": 55,
      "R": 56,
      "S": 57,
      "T": 58,
      "U": 59,
      "V": 60,
      "W": 61,
      "X": 62,
      "Y": 63,
      "Z": 64,
      "[": 65,
      "\\": 66,
      "]": 67,
      "^": 68,
      "_": 69,
      "`": 70,
      "a": 71,
      "b": 72,
      "c": 73,
      "d": 74,
      "e": 75,
      "f": 76,
      "g": 77,
      "h": 78,
      "i": 79,
      "j": 80,
      "k": 81,
      "l": 82,
      "m": 83,
      "n": 84,
      "o": 85,
      "p": 86,
      "q": 87,
      "r": 88,
      "s": 89,
      "t": 90,
      "u": 91,
      "v": 92,
      "w": 93,
      "x": 94,
      "y": 95,
      "z": 96,
      "{": 97,
      "|": 98,
      "}": 99,
      "~": 100,
      "¡": 101,
      "¢": 102,
      "£": 103,
      "¤": 104,
      "¥": 105,
      "¦": 106,
      "§": 107,
      "¨": 108,
      "©": 109,
      "ª": 110,
      "«": 111,
      "¬": 112,
      "®": 113,
      "¯": 114,
      "°": 115,
      "±": 116,
      "²": 117,
      "³": 118,
      "´": 119,
      "µ": 120,
      "¶": 121,
      "·": 122,
      "¸": 123,
      "¹": 124,
      "º": 125,
      "»": 126,
      "¼": 127,
      "½": 128,
      "¾": 129,
      "¿": 130,
      "Â": 131,
      "Ã": 132,
      "Ä": 133,
      "Å": 134,
      "Æ": 135,
      "Ç": 136,
      "È": 137,
      "É": 138,
      "Ê": 139,
      "Ë": 140,
      "Í": 141,
      "Î": 142,
      "Ï": 143,
      "Ð": 144,
      "Ñ": 145,
      "Ò": 146,
      "Ó": 147,
      "Ô": 148,
      "Õ": 149,
      "Ö": 150,
      "×": 151,
      "Ø": 152,
      "Ú": 153,
      "Ü": 154,
      "Þ": 155,
      "à": 156,
      "â": 157,
      "ã": 158,
      "ä": 159,
      "å": 160,
      "æ": 161,
      "ç": 162,
      "è": 163,
      "é": 164,
      "ê": 165,
      "ë": 166,
      "ì": 167,
      "í": 168,
      "ï": 169,
      "ā": 170,
      "Ă": 171,
      "ă": 172,
      "ĉ": 173,
      "Ċ": 174,
      "Č": 175,
      "Ė": 176,
      "Ġ": 177,
      "Ģ": 178,
      "ģ": 179,
      "Ĥ": 180,
      "ĥ": 181,
      "Ħ": 182,
      "ħ": 183,
      "Ĩ": 184,
      "ĩ": 185,
      "Ī": 186,
      "ī": 187,
      "Ĭ": 188,
      "ĭ": 189,
      "Į": 190,
      "į": 191,
      "İ": 192,
      "ı": 193,
      "Ĳ": 194,
      "ĳ": 195,
      "Ĵ": 196,
      "ĵ": 197,
      "Ķ": 198,
      "ķ": 199,
      "ĸ": 200,
      "Ĺ": 201,
      "ĺ": 202,
      "Ļ": 203,
      "ļ": 204,
      "Ľ": 205,
      "ľ": 206,
      "Ŀ": 207,
      "ŀ": 208,
      "Ł": 209,
      "ł": 210,
      "Ń": 211,
      "ĠĠ": 212,
      "ĠĠĠĠ": 213,
      "ĠĠĠĠĠĠĠĠ": 214,
      "ĠĠĠ": 215,
      "ĊĠĠĠĠĠĠĠĠ": 216,
      "ĠĠĠĠĠĠĠ": 217,
      ");": 218,
      "in": 219,
      "on": 220,
      "re": 221,
      "er": 222,
      "Ġ=": 223,
      "ĊĠĠĠĠĠĠĠĠĠĠĠ": 224,
      "le": 225,
      "te": 226,
      "et": 227,
      "ĊĠĠĠĠĠĠĠ": 228,
      "Ġ{": 229,
      "St": 230,
      "ti": 231,
      "Ġ}": 232,
      "ut": 233,
      "ne": 234,
      "st": 235,
      "Ġ(": 236,
      "am": 237,
      "ile": 238,
      "ĊĠĠĠĠĠĠĠĠĠĠĠĠĠĠĠĠ": 239,
      "Ġc": 240,
      "get": 241,
      "tion": 242,
      "ce": 243,
      "ĊĠĠĠĠĠĠĠĠĠĠĠĠĠĠĠ": 244,
      "rin": 245,
      "()": 246,
      "ss": 247,
      "();": 248,
      "at": 249,
      "or": 250,
      "en": 251,
      "new": 252,
      "Ġi": 253,
      "se": 254,
      "ring": 255,
      "Ġt": 256,
      "Ġ\"": 257,
      "ur": 258,
      "Ġ+": 259,
      "al": 260,
      "String": 261,
      "(\"": 262,
      "File": 263,
      "ad": 264,
      "ro": 265,
      "Ġf": 266,
      "Ġnew": 267,
      "la": 268,
      "put": 269,
      "Ġp": 270,
      "ar": 271,
      "ream": 272,
      "an": 273,
      "In": 274,
      "ul": 275,
      "Ġe": 276,
      "ption": 277,
      "Stream": 278,
      "Ġn": 279,
      "li": 280,
      "ĊĠĠĠĠĠĠĠĠĠĠĠĠĠĠĠĠĠĠĠ": 281,
      "Ex": 282,
      "lo": 283,
      "Ġre": 284,
      "ception": 285,
      "de": 286,
      "Ġif": 287,
      "Exception": 288,
      "ch": 289,
      "lass": 290,
      "Re": 291,
      "ri": 292,
      "ge": 293,
      "putStream": 294,
      "ull": 295,
      "ub": 296,
      "Ġin": 297,
      "ĠString": 298,
      "out": 299,
      "ent": 300,
      "Ġb": 301,
      "ate": 302,
      "\");": 303,
      "Ġs": 304,
      "ame": 305,
      "Ġnull": 306,
      "ry": 307,
      "ue": 308,
      "lic": 309,
      "um": 310,
      "Con": 311,
      "ĠFile": 312,
      "ublic": 313,
      "set": 314,
      "Ġd": 315,
      "ĠD": 316,
      "ct": 317,
      "nt": 318,
      "atch": 319,
      "url": 320,
      "ction": 321,
      "uf": 322,
      "Ġth": 323,
      "UR": 324,
      "ĊĠĠĠĠĠĠĠĠĠĠĠĠĠĠĠĠĠĠĠĠĠĠĠ": 325,
      "is": 326,
      "age": 327,
      "());": 328,
      "th": 329,
      "Ġm": 330,
      "yte": 331,
      "URL": 332,
      "Ġcon": 333,
      "InputStream": 334,
      "Ġcatch": 335,
      "Ġ0": 336,
      "ader": 337,
      "ĊĠĠĠĠĠĠĠĠĠĠĠĠĠĠĠĠĠĠĠĠĠĠĠĠ": 338,
      "Ġtry": 339,
      "co": 340,
      "Class": 341,
      "uff": 342,
      "tem": 343,
      "));": 344,
      "row": 345,
      "Ġout": 346,
      "ra": 347,
      "Name": 348,
      "tp": 349,
      "ĠS": 350,
      "nection": 351,
      "Out": 352,
      "id": 353,
      "rint": 354,
      "Ġst": 355,
      "ex": 356,
      "IO": 357,
      "Ġ!": 358,
      "Ġthrow": 359,
      "Ġpublic": 360,
      "lose": 361,
      "to": 362,
      "Ġurl": 363,
      "Co": 364,
      "ine": 365,
      "Ġclass": 366,
      "Ġret": 367,
      "close": 368,
      "print": 369,
      "Ġ!=": 370,
      "it": 371,
      "ap": 372,
      "urn": 373,
      "ser": 374,
      "\",": 375,
      "ĊĠĠĠ": 376,
      "ing": 377,
      "ck": 378,
      "my": 379,
      "red": 380,
      "ĠB": 381,
      "Ġreturn": 382,
      "ttp": 383,
      "pe": 384,
      "().": 385,
      "ummy": 386,
      "ummyClass": 387,
      "ĠDummyClass": 388,
      "Ġv": 389,
      "pen": 390,
      "))": 391,
      "ata": 392,
      "OutputStream": 393,
      "sp": 394,
      "Ġw": 395,
      "ter": 396,
      "len": 397,
      "Ch": 398,
      "ess": 399,
      "ys": 400,
      "mp": 401,
      "Di": 402,
      "our": 403,
      "ment": 404,
      "as": 405,
      "il": 406,
      "con": 407,
      "ource": 408,
      "up": 409,
      "essage": 410,
      "ystem": 411,
      "inal": 412,
      "Pro": 413,
      "())": 414,
      "Connection": 415,
      "me": 416,
      "IOException": 417,
      "ation": 418,
      "log": 419,
      "Reader": 420,
      "read": 421,
      "ath": 422,
      "un": 423,
      "rite": 424,
      "qu": 425,
      "ĠURL": 426,
      "ist": 427,
      "ype": 428,
      "Ġh": 429,
      "gest": 430,
      "nel": 431,
      "ĠSystem": 432,
      "Ġfile": 433,
      "gth": 434,
      "Message": 435,
      "oo": 436,
      "ab": 437,
      "Ġint": 438,
      "ĊĠĠĠĠĠĠĠĠĠĠĠĠĠĠĠĠĠĠĠĠĠĠĠĠĠĠĠ": 439,
      "ln": 440,
      "di": 441,
      "xt": 442,
      "ger": 443,
      "write": 444,
      "ror": 445,
      "annel": 446,
      "Ġfinal": 447,
      "os": 448,
      "\\\"": 449,
      "ie": 450,
      "Lo": 451,
      "Par": 452,
      "En": 453,
      "que": 454,
      "ty": 455,
      "spon": 456,
      "sponse": 457,
      "println": 458,
      "Ġ1": 459,
      "Ġel": 460,
      "ack": 461,
      "iz": 462,
      "ered": 463,
      "Channel": 464,
      "date": 465,
      "uffered": 466,
      "Ġelse": 467,
      "alue": 468,
      "ID": 469,
      "ot": 470,
      "[]": 471,
      "uffer": 472,
      "public": 473,
      "ute": 474,
      "Ġex": 475,
      "per": 476,
      "ve": 477,
      "quest": 478,
      "Ġ==": 479,
      "ult": 480,
      "Ġbyte": 481,
      "ver": 482,
      "Ġj": 483,
      "Http": 484,
      "file": 485,
      "ĠBuffered": 486,
      "Type": 487,
      "length": 488,
      "der": 489,
      "name": 490,
      "Ġfor": 491,
      "able": 492,
      "ect": 493,
      "Ġthrows": 494,
      "line": 495,
      "oid": 496,
      "Ġ-": 497,
      "ory": 498,
      "tent": 499,
      "Ġde": 500,
      "stan": 501,
      "Ġwh": 502,
      "ig": 503,
      "ion": 504,
      "Ġvoid": 505,
      "us": 506,
      "Ġa": 507,
      "ER": 508,
      ").": 509,
      "es": 510,
      "til": 511,
      "Ar": 512,
      "ize": 513,
      "ĠInputStream": 514,
      "ly": 515,
      "open": 516,
      "int": 517,
      "ol": 518,
      "Path": 519,
      "add": 520,
      "source": 521,
      "ec": 522,
      "ip": 523,
      "rue": 524,
      "Ġwhile": 525,
      "va": 526,
      "Data": 527,
      "ho": 528,
      "\";": 529,
      "toString": 530,
      "ase": 531,
      "ject": 532,
      "Ġlog": 533,
      "ag": 534,
      "alse": 535,
      "Ġ<": 536,
      "ord": 537,
      "Ġ>": 538,
      "sult": 539,
      "To": 540,
      "als": 541,
      "ode": 542,
      "tic": 543,
      "pend": 544,
      "Util": 545,
      "Ġget": 546,
      "Line": 547,
      "and": 548,
      "stance": 549,
      "ray": 550,
      "append": 551,
      "ted": 552,
      "oc": 553,
      "riter": 554,
      "Ġmd": 555,
      "orm": 556,
      "ava": 557,
      "Pa": 558,
      "Ġto": 559,
      "ctory": 560,
      "00": 561,
      "ith": 562,
      "Ġconn": 563,
      "(),": 564,
      "Byte": 565,
      "lient": 566,
      "ug": 567,
      "Ġco": 568,
      "quals": 569,
      "py": 570,
      "++": 571,
      "List": 572,
      "ort": 573,
      "pa": 574,
      "Ġ((": 575,
      "fo": 576,
      "error": 577,
      "ĠI": 578,
      "atic": 579,
      "race": 580,
      "Ġ&": 581,
      "ĠFileOutputStream": 582,
      "load": 583,
      "Digest": 584,
      "text": 585,
      "Ġo": 586,
      "ĠIOException": 587,
      "rc": 588,
      "Ġis": 589,
      "Value": 590,
      "mt": 591,
      "par": 592,
      "Instance": 593,
      "State": 594,
      "Ġstatic": 595,
      "dex": 596,
      "Ġ(!": 597,
      "Ġr": 598,
      "--": 599,
      "Proper": 600,
      "ĠHttp": 601,
      "unt": 602,
      "];": 603,
      "ĠM": 604,
      "ml": 605,
      "Id": 606,
      "Array": 607,
      "Request": 608,
      "\"))": 609,
      "el": 610,
      "\")": 611,
      "Of": 612,
      "update": 613,
      "Ġpro": 614,
      "Tag": 615,
      "rent": 616,
      "uil": 617,
      "ain": 618,
      "Trace": 619,
      "rom": 620,
      "ĠP": 621,
      "ĊĠĠĠĠĠĠĠĠĠĠĠĠĠĠĠĠĠĠĠĠĠĠĠĠĠĠĠĠĠĠĠĠ": 622,
      "Stack": 623,
      "ĠBufferedReader": 624,
      "reate": 625,
      "De": 626,
      "ext": 627,
      "</": 628,
      "lean": 629,
      "ecute": 630,
      "Up": 631,
      "lement": 632,
      "ers": 633,
      "StackTrace": 634,
      "oolean": 635,
      "ash": 636,
      "mage": 637,
      "cm": 638,
      "code": 639,
      "ĠA": 640,
      "equals": 641,
      "ĊĠĠĠĠĠĠĠĠĠĠĠĠĠĠĠĠĠĠĠĠĠĠĠĠĠĠĠĠĠĠĠ": 642,
      "Ġfinally": 643,
      "ey": 644,
      "Bytes": 645,
      "printStackTrace": 646,
      "ed": 647,
      "ĠFileInputStream": 648,
      "ime": 649,
      "ow": 650,
      "Ser": 651,
      "Content": 652,
      "ĠMessage": 653,
      "Utils": 654,
      "art": 655,
      "bject": 656,
      "Ġconnection": 657,
      "Er": 658,
      "Buffer": 659,
      "Ġfalse": 660,
      "Writer": 661,
      "ic": 662,
      "und": 663,
      "word": 664,
      "Ent": 665,
      "mm": 666,
      "Log": 667,
      "ost": 668,
      "Statement": 669,
      "**": 670,
      "Ġdi": 671,
      "byte": 672,
      "execute": 673,
      "Fa": 674,
      "tri": 675,
      "IN": 676,
      "ong": 677,
      "Int": 678,
      "fa": 679,
      "Error": 680,
      "getRe": 681,
      "ĠMessageDigest": 682,
      "Ġl": 683,
      "ssword": 684,
      "Param": 685,
      "cess": 686,
      "\"));": 687,
      "Ġthis": 688,
      "ument": 689,
      "Ġ&&": 690,
      "##": 691,
      "Ġu": 692,
      "tity": 693,
      "Ġresponse": 694,
      "atus": 695,
      "ress": 696,
      "Ġboolean": 697,
      "ator": 698,
      "Ġ'": 699,
      "Ġen": 700,
      "Al": 701,
      "Object": 702,
      "Ġdest": 703,
      "LE": 704,
      "Entry": 705,
      "Ġtrue": 706,
      "Tags": 707,
      "pro": 708,
      "ĠT": 709,
      "Ġds": 710,
      "ĠJ": 711,
      "Ġch": 712,
      "Ġread": 713,
      "Property": 714,
      "bug": 715,
      "Ġline": 716,
      "Client": 717,
      "ĠIn": 718,
      "che": 719,
      "ran": 720,
      "temp": 721,
      "><": 722,
      "..": 723,
      "RO": 724,
      "Update": 725,
      "getInstance": 726,
      "eader": 727,
      "Element": 728,
      "Time": 729,
      "getName": 730,
      "++)": 731,
      "ix": 732,
      "Parser": 733,
      "AT": 734,
      "riv": 735,
      "ĠF": 736,
      "Ġse": 737,
      "Ġ:": 738,
      "getBytes": 739,
      "==": 740,
      "teger": 741,
      "Ġjava": 742,
      "rivate": 743,
      "io": 744,
      "At": 745,
      "string": 746,
      "ds": 747,
      "Ġresult": 748,
      "ma": 749,
      "rans": 750,
      "Code": 751,
      "ME": 752,
      "Ġg": 753,
      "QL": 754,
      "sub": 755,
      "ocument": 756,
      "private": 757,
      "rectory": 758,
      "URLConnection": 759,
      "pt": 760,
      "ql": 761,
      "Buil": 762,
      "fig": 763,
      "size": 764,
      "Set": 765,
      "create": 766,
      "ormat": 767,
      "let": 768,
      "Ġnot": 769,
      "((": 770,
      "vi": 771,
      "nect": 772,
      "Ġ|": 773,
      "next": 774,
      "TP": 775,
      "No": 776,
      "ĠStringBuffer": 777,
      "openStream": 778,
      "repa": 779,
      "loc": 780,
      "Dir": 781,
      "time": 782,
      "Response": 783,
      "ĠR": 784,
      "ore": 785,
      "Ġhttp": 786,
      "openConnection": 787,
      "ĠInputStreamReader": 788,
      "http": 789,
      "urrent": 790,
      "ery": 791,
      "Ġar": 792,
      "ties": 793,
      "Ġsource": 794,
      "CO": 795,
      "Text": 796,
      "ound": 797,
      "tain": 798,
      "User": 799,
      "ber": 800,
      "digest": 801,
      "readLine": 802,
      "rl": 803,
      "Ġpa": 804,
      "ĠL": 805,
      "SE": 806,
      "Ġdata": 807,
      "Ġps": 808,
      "getMessage": 809,
      "mo": 810,
      "Ġx": 811,
      "substring": 812,
      "ding": 813,
      "Url": 814,
      "Ġsrc": 815,
      "Ġinput": 816,
      "Ġpst": 817,
      "MD": 818,
      "iew": 819,
      "ure": 820,
      "UT": 821,
      "()));": 822,
      "gor": 823,
      "true": 824,
      "Count": 825,
      "etho": 826,
      "ken": 827,
      "str": 828,
      "ST": 829,
      "ink": 830,
      "lete": 831,
      "executeUpdate": 832,
      "ir": 833,
      "RE": 834,
      "zip": 835,
      "Ġdo": 836,
      "own": 837,
      "ler": 838,
      "Ġreader": 839,
      "ists": 840,
      "ten": 841,
      "Ġsb": 842,
      "UID": 843,
      "Ġ||": 844,
      "With": 845,
      "ĠC": 846,
      "cri": 847,
      "Ġlogger": 848,
      "Ġstmt": 849,
      "gorith": 850,
      "gorithm": 851,
      "ĠException": 852,
      "ethod": 853,
      "class": 854,
      "ĠIO": 855,
      "Ġ2": 856,
      "Ġpar": 857,
      "vent": 858,
      "SQL": 859,
      "key": 860,
      "ĠG": 861,
      "ination": 862,
      "cted": 863,
      "Loc": 864,
      "rol": 865,
      "Un": 866,
      "getInputStream": 867,
      "Read": 868,
      "Qu": 869,
      "index": 870,
      ".\");": 871,
      "Entity": 872,
      "Enco": 873,
      "vice": 874,
      "pla": 875,
      "Ġname": 876,
      "ref": 877,
      "¿½": 878,
      "ï¿½": 879,
      "ĠN": 880,
      "parse": 881,
      "arget": 882,
      "Ġrequest": 883,
      "Status": 884,
      "Do": 885,
      "Header": 886,
      "ert": 887,
      "DE": 888,
      "//": 889,
      "Te": 890,
      "Ġfrom": 891,
      "mmit": 892,
      "Len": 893,
      "ĠIOUtils": 894,
      "=\"": 895,
      "trib": 896,
      "dest": 897,
      "uc": 898,
      "entry": 899,
      "gs": 900,
      "Factory": 901,
      "start": 902,
      "copy": 903,
      "Builder": 904,
      "Ġtemp": 905,
      "ht": 906,
      "Ad": 907,
      "Ġ+=": 908,
      "Se": 909,
      "list": 910,
      "Map": 911,
      "Source": 912,
      "tribute": 913,
      "buffer": 914,
      "err": 915,
      "getChannel": 916,
      "for": 917,
      "ĊĠĠĠĠĠĠĠĠĠĠĠĠĠĠĠĠĠĠĠĠĠĠĠĠĠĠĠĠĠĠĠĠĠĠĠ": 918,
      "ersion": 919,
      "vlet": 920,
      "ML": 921,
      "ity": 922,
      "tains": 923,
      "setString": 924,
      "?,": 925,
      "path": 926,
      "ixel": 927,
      "fault": 928,
      "umber": 929,
      "Mo": 930,
      "ransf": 931,
      "AR": 932,
      "SO": 933,
      "ach": 934,
      "back": 935,
      "qui": 936,
      "Resource": 937,
      "Ġcopy": 938,
      "exists": 939,
      "cmParser": 940,
      "----": 941,
      "Ġuser": 942,
      "Zip": 943,
      "Ġoutput": 944,
      "ssert": 945,
      "dir": 946,
      "Ġdigest": 947,
      "Ġid": 948,
      "debug": 949,
      "eter": 950,
      "Ġbuffer": 951,
      "',": 952,
      "sh": 953,
      "this": 954,
      "Ġ\"\";": 955,
      "uth": 956,
      "Directory": 957,
      "test": 958,
      "Ġ*": 959,
      "Ġftp": 960,
      "data": 961,
      "ĠFileChannel": 962,
      "NT": 963,
      "xlen": 964,
      "Config": 965,
      "ak": 966,
      "Key": 967,
      "ixelData": 968,
      "Th": 969,
      "Context": 970,
      "contains": 971,
      "ĠInteger": 972,
      "ff": 973,
      "\\\":": 974,
      "false": 975,
      "Length": 976,
      "sol": 977,
      "input": 978,
      "iel": 979,
      "src": 980,
      "AL": 981,
      "eta": 982,
      "uble": 983,
      "Ġser": 984,
      "UTF": 985,
      "xml": 986,
      "://": 987,
      "info": 988,
      "Algorithm": 989,
      "Ġvalue": 990,
      "sg": 991,
      "Result": 992,
      "Ġlong": 993,
      "uch": 994,
      "****": 995,
      "last": 996,
      "connect": 997,
      "om": 998,
      "Info": 999,
      "setRequest": 1000,
      "].": 1001,
      "alid": 1002,
      "eck": 1003,
      "####": 1004,
      "Ġ\"/": 1005,
      "dif": 1006,
      "port": 1007,
      "andler": 1008,
      "ble": 1009,
      "Size": 1010,
      "amp": 1011,
      "Ġcontent": 1012,
      "ĠLog": 1013,
      "FileName": 1014,
      "Ġfos": 1015,
      "Ġerror": 1016,
      "ĠOutputStream": 1017,
      "Attribute": 1018,
      "roll": 1019,
      "getA": 1020,
      "has": 1021,
      "SQLException": 1022,
      "ork": 1023,
      "Conn": 1024,
      "),": 1025,
      "roup": 1026,
      "Format": 1027,
      "Hash": 1028,
      "ĠByte": 1029,
      "Index": 1030,
      "sert": 1031,
      "ownload": 1032,
      "Ġal": 1033,
      "Not": 1034,
      "ere": 1035,
      "tern": 1036,
      "ĠV": 1037,
      "NoS": 1038,
      "value": 1039,
      "NoSuch": 1040,
      "Man": 1041,
      "vel": 1042,
      "ĠData": 1043,
      "Image": 1044,
      "XML": 1045,
      "Ġ\".": 1046,
      "dy": 1047,
      "ary": 1048,
      "Ġstr": 1049,
      "ied": 1050,
      "ĊĠĠĠĠĠĠĠĠĠĠĠĠĠĠĠĠĠĠĠĠĠĠĠĠĠĠĠĠĠĠĠĠĠĠĠĠĠĠĠĠ": 1051,
      "PixelData": 1052,
      "ind": 1053,
      "one": 1054,
      "ive": 1055,
      "Ġthe": 1056,
      "OR": 1057,
      "sWith": 1058,
      "fl": 1059,
      "Table": 1060,
      "older": 1061,
      "Comp": 1062,
      "AlgorithmException": 1063,
      "getString": 1064,
      "indexOf": 1065,
      "NoSuchAlgorithmException": 1066,
      "Handler": 1067,
      "Ġset": 1068,
      "app": 1069,
      "trim": 1070,
      "Parameter": 1071,
      "64": 1072,
      "ush": 1073,
      "sion": 1074,
      "ĠW": 1075,
      "ial": 1076,
      "mat": 1077,
      "Col": 1078,
      "itor": 1079,
      "ager": 1080,
      "Servlet": 1081,
      "base": 1082,
      "user": 1083,
      "ĠDe": 1084,
      "Output": 1085,
      "Ġtmp": 1086,
      "reak": 1087,
      "Ġ?": 1088,
      "late": 1089,
      "buf": 1090,
      "ave": 1091,
      "if": 1092,
      "Ġfa": 1093,
      "Token": 1094,
      "repare": 1095,
      "OG": 1096,
      "Ġassert": 1097,
      "uccess": 1098,
      "quired": 1099,
      "Ġ>>": 1100,
      "====": 1101,
      "lug": 1102,
      "Ġhash": 1103,
      "=\\\"": 1104,
      "rollback": 1105,
      "ts": 1106,
      "getProperty": 1107,
      "Imp": 1108,
      "From": 1109,
      "10": 1110,
      "Ġbuf": 1111,
      "Ġsql": 1112,
      "med": 1113,
      "bo": 1114,
      "conn": 1115,
      "Ġbreak": 1116,
      "ww": 1117,
      "Password": 1118,
      "Next": 1119,
      "Event": 1120,
      "Files": 1121,
      "lugin": 1122,
      "Str": 1123,
      "FI": 1124,
      "Ġpassword": 1125,
      "arch": 1126,
      "untime": 1127,
      "Mode": 1128,
      "ĠZip": 1129,
      "im": 1130,
      "null": 1131,
      "repareStatement": 1132,
      "]);": 1133,
      "SS": 1134,
      "Query": 1135,
      "flush": 1136,
      "atcher": 1137,
      "AG": 1138,
      "stream": 1139,
      "og": 1140,
      "Be": 1141,
      "Option": 1142,
      "ĠURLConnection": 1143,
      "startsWith": 1144,
      "getD": 1145,
      "Ġdestination": 1146,
      "Get": 1147,
      "how": 1148,
      "Ġmessage": 1149,
      "ĠBufferedInputStream": 1150,
      "Method": 1151,
      "ok": 1152,
      "Version": 1153,
      "ï¿½ï¿½": 1154,
      "Number": 1155,
      "Case": 1156,
      "ION": 1157,
      "ERE": 1158,
      "Manager": 1159,
      "current": 1160,
      "Ġ\",": 1161,
      "formed": 1162,
      "java": 1163,
      "Ġ\"'": 1164,
      "Ġ\"\\": 1165,
      "ax": 1166,
      "final": 1167,
      "place": 1168,
      "gn": 1169,
      "AME": 1170,
      "Ġ4": 1171,
      "getContent": 1172,
      "ange": 1173,
      "required": 1174,
      "pos": 1175,
      "Add": 1176,
      "encode": 1177,
      "CT": 1178,
      "iled": 1179,
      "repared": 1180,
      "(\"\\": 1181,
      "URI": 1182,
      "ĠByteArray": 1183,
      "ps": 1184,
      "end": 1185,
      "ransfer": 1186,
      "requiredType": 1187,
      "reparedStatement": 1188,
      "Le": 1189,
      "HT": 1190,
      "delete": 1191,
      "item": 1192,
      "Ġpstmt": 1193,
      "prepareStatement": 1194,
      "all": 1195,
      "ssion": 1196,
      "Found": 1197,
      "query": 1198,
      "orted": 1199,
      "ph": 1200,
      "Ġ3": 1201,
      "An": 1202,
      "gress": 1203,
      "yn": 1204,
      "col": 1205,
      "Properties": 1206,
      "('": 1207,
      "getInt": 1208,
      "ield": 1209,
      "Ġbytes": 1210,
      "Ġparam": 1211,
      "Integer": 1212,
      "ĠdcmParser": 1213,
      "ook": 1214,
      "ting": 1215,
      "Ġentry": 1216,
      "ĠObject": 1217,
      "setInt": 1218,
      "ArrayList": 1219,
      "\").": 1220,
      "Long": 1221,
      "System": 1222,
      "alog": 1223,
      "gr": 1224,
      "ĠList": 1225,
      "Encoding": 1226,
      "HA": 1227,
      "ob": 1228,
      "uri": 1229,
      "ies": 1230,
      "Node": 1231,
      "Ġwriter": 1232,
      "Server": 1233,
      "format": 1234,
      "uto": 1235,
      "Ġzip": 1236,
      "Date": 1237,
      "response": 1238,
      ">\");": 1239,
      "Ġ_": 1240,
      "TE": 1241,
      "eb": 1242,
      "tr": 1243,
      "chema": 1244,
      "AD": 1245,
      "Hex": 1246,
      "cript": 1247,
      "La": 1248,
      "Ġcreate": 1249,
      "Loader": 1250,
      "comp": 1251,
      "Over": 1252,
      "du": 1253,
      ")\");": 1254,
      "umn": 1255,
      "DAT": 1256,
      "Input": 1257,
      "Location": 1258,
      "Document": 1259,
      "Ġk": 1260,
      "ĠArrayList": 1261,
      "Ġpath": 1262,
      "()).": 1263,
      "Ġpxlen": 1264,
      "PE": 1265,
      "Ġz": 1266,
      "ĠHttpURLConnection": 1267,
      "getP": 1268,
      "setRequestProperty": 1269,
      "td": 1270,
      "HttpURLConnection": 1271,
      "ition": 1272,
      "Ġ'\"": 1273,
      "getResource": 1274,
      "Temp": 1275,
      ":\"": 1276,
      "Ġargs": 1277,
      "Level": 1278,
      "ache": 1279,
      "les": 1280,
      "Modif": 1281,
      "ac": 1282,
      "Ġrs": 1283,
      "ND": 1284,
      "ool": 1285,
      "Ac": 1286,
      "org": 1287,
      "\"),": 1288,
      "solute": 1289,
      "type": 1290,
      "alformed": 1291,
      "connection": 1292,
      "commit": 1293,
      "sql": 1294,
      "Ġtarget": 1295,
      "ann": 1296,
      "replace": 1297,
      "upp": 1298,
      "request": 1299,
      "Ġdb": 1300,
      "war": 1301,
      "Part": 1302,
      "Pane": 1303,
      "Ġload": 1304,
      "ĠBufferedOutputStream": 1305,
      "ha": 1306,
      "leg": 1307,
      "AX": 1308,
      "onitor": 1309,
      "Ġos": 1310,
      "tmp": 1311,
      "(\"/": 1312,
      "getS": 1313,
      "parator": 1314,
      "Action": 1315,
      "min": 1316,
      "bsolute": 1317,
      "24": 1318,
      "Ne": 1319,
      "untimeException": 1320,
      "Host": 1321,
      "of": 1322,
      "SER": 1323,
      "gist": 1324,
      "Constan": 1325,
      "setDo": 1326,
      "NotFound": 1327,
      "Ġloc": 1328,
      "Ġkey": 1329,
      "IP": 1330,
      "Ġio": 1331,
      "uld": 1332,
      "hash": 1333,
      "ask": 1334,
      "ĠImage": 1335,
      "Ġclient": 1336,
      "Ġfis": 1337,
      "ng": 1338,
      "lis": 1339,
      "show": 1340,
      "(\"<": 1341,
      "ride": 1342,
      "ĠLOG": 1343,
      "Bo": 1344,
      "ERRO": 1345,
      "xy": 1346,
      "Group": 1347,
      "ust": 1348,
      "NotFoundException": 1349,
      "Ġbr": 1350,
      "Ġno": 1351,
      "Ġmo": 1352,
      "Encoder": 1353,
      "getC": 1354,
      "Ġstream": 1355,
      "Ġadd": 1356,
      "uration": 1357,
      "UI": 1358,
      "ign": 1359,
      "ERROR": 1360,
      "TY": 1361,
      "Char": 1362,
      "tive": 1363,
      "ener": 1364,
      "getAbsolute": 1365,
      "FTP": 1366,
      "act": 1367,
      "Ġbe": 1368,
      "ateg": 1369,
      "Service": 1370,
      "uild": 1371,
      "cry": 1372,
      "Ġcurrent": 1373,
      "Commit": 1374,
      "Override": 1375,
      "alformedURL": 1376,
      "Ġcont": 1377,
      "NAME": 1378,
      "form": 1379,
      "mmand": 1380,
      "action": 1381,
      "Ġresource": 1382,
      "pre": 1383,
      "son": 1384,
      "ĠX": 1385,
      "alformedURLException": 1386,
      "utoCommit": 1387,
      "rame": 1388,
      "ategory": 1389,
      "ĠStringBuilder": 1390,
      "ock": 1391,
      "As": 1392,
      "CE": 1393,
      "em": 1394,
      "cord": 1395,
      "Copy": 1396,
      "Ġserver": 1397,
      "Ġchar": 1398,
      "insert": 1399,
      "getAbsolutePath": 1400,
      "content": 1401,
      "ite": 1402,
      "ĠO": 1403,
      "Pair": 1404,
      "gnore": 1405,
      "legal": 1406,
      "ply": 1407,
      "UE": 1408,
      "dis": 1409,
      "isten": 1410,
      "imp": 1411,
      "com": 1412,
      "no": 1413,
      "Ġupdate": 1414,
      "llegal": 1415,
      "perties": 1416,
      "cription": 1417,
      "tiv": 1418,
      "Folder": 1419,
      "(\".": 1420,
      "mail": 1421,
      "count": 1422,
      "ĠByteArrayOutputStream": 1423,
      "View": 1424,
      "br": 1425,
      "erial": 1426,
      "Ġpd": 1427,
      "Ġimage": 1428,
      "Ġexc": 1429,
      "All": 1430,
      "transfer": 1431,
      "irst": 1432,
      "getParameter": 1433,
      "oint": 1434,
      "Ġcount": 1435,
      "Ċĉ": 1436,
      "dit": 1437,
      "vert": 1438,
      "Constants": 1439,
      "Ġ/": 1440,
      "output": 1441,
      "Logger": 1442,
      "Ġlist": 1443,
      "getOutputStream": 1444,
      "Ġfilename": 1445,
      "!\");": 1446,
      "Base": 1447,
      "upload": 1448,
      "UP": 1449,
      "Ġtest": 1450,
      "ight": 1451,
      "UL": 1452,
      "ValuePair": 1453,
      "mote": 1454,
      "Equals": 1455,
      "NO": 1456,
      "setA": 1457,
      "By": 1458,
      "tif": 1459,
      "ING": 1460,
      "Test": 1461,
      "md": 1462,
      "Ġsuccess": 1463,
      "Item": 1464,
      "oot": 1465,
      "></": 1466,
      "tle": 1467,
      "tected": 1468,
      "lication": 1469,
      "fore": 1470,
      "New": 1471,
      "Ġla": 1472,
      "Ġan": 1473,
      "password": 1474,
      "Ġvalues": 1475,
      "separator": 1476,
      "Project": 1477,
      "ĠClass": 1478,
      "izer": 1479,
      "upported": 1480,
      "link": 1481,
      "getRead": 1482,
      "result": 1483,
      "Dest": 1484,
      "Ġres": 1485,
      "ector": 1486,
      "getValue": 1487,
      "InstanceUID": 1488,
      "bytes": 1489,
      "db": 1490,
      "');": 1491,
      "Post": 1492,
      "ature": 1493,
      "Check": 1494,
      "Ġ>=": 1495,
      "ĠPreparedStatement": 1496,
      "\\\":\\\"": 1497,
      "Dis": 1498,
      "Ġdis": 1499,
      "HERE": 1500,
      "Ġun": 1501,
      "()))": 1502,
      "Ġdst": 1503,
      "Ġstatus": 1504,
      "table": 1505,
      "Dialog": 1506,
      "Ġof": 1507,
      "getResponse": 1508,
      "ĠFTP": 1509,
      "net": 1510,
      "tach": 1511,
      ">();": 1512,
      "Ġioe": 1513,
      "Inter": 1514,
      "ET": 1515,
      "Ġjar": 1516,
      "attern": 1517,
      "--------": 1518,
      "HTTP": 1519,
      "ries": 1520,
      "?,?,": 1521,
      ",\\\"": 1522,
      "kdir": 1523,
      "Ġat": 1524,
      "abled": 1525,
      "pp": 1526,
      "its": 1527,
      "ron": 1528,
      "Ġ8": 1529,
      "lit": 1530,
      "ilter": 1531,
      "ĠRuntimeException": 1532,
      "Or": 1533,
      "ild": 1534,
      "CH": 1535,
      "ded": 1536,
      "material": 1537,
      "ree": 1538,
      "And": 1539,
      "setAutoCommit": 1540,
      "op": 1541,
      "Ġ\"&": 1542,
      "Ġmy": 1543,
      "ĊĠĠĠĠĠĠĠĠĠĠĠĠĠĠĠĠĠĠĠĠĠĠĠĠĠĠĠĠĠĠĠĠĠĠĠĠĠĠĠ": 1544,
      "undle": 1545,
      ">\\": 1546,
      "Ġ16": 1547,
      "Ġcheck": 1548,
      "MA": 1549,
      "MalformedURLException": 1550,
      "Ġor": 1551,
      "########": 1552,
      "Cont": 1553,
      "Ġstart": 1554,
      "DO": 1555,
      "client": 1556,
      "SON": 1557,
      "asic": 1558,
      "parseInt": 1559,
      "ome": 1560,
      "work": 1561,
      "char": 1562,
      "++;": 1563,
      "lect": 1564,
      "Ġ\":": 1565,
      "Ġcomp": 1566,
      "Ġtext": 1567,
      "Ġro": 1568,
      "Ġinto": 1569,
      "host": 1570,
      "SHA": 1571,
      "mkdir": 1572,
      "Ġsize": 1573,
      "ĠfileName": 1574,
      "view": 1575,
      "OptionPane": 1576,
      "Modified": 1577,
      "raw": 1578,
      "\".": 1579,
      "FF": 1580,
      "Des": 1581,
      "Ġfiles": 1582,
      "Enabled": 1583,
      "Parent": 1584,
      "Category": 1585,
      "Ġlength": 1586,
      "DB": 1587,
      "Ġ\"\\\"": 1588,
      "Listen": 1589,
      "res": 1590,
      "12": 1591,
      "ĠDocument": 1592,
      "getPath": 1593,
      "ackage": 1594,
      "param": 1595,
      "Address": 1596,
      "********": 1597,
      "ftp": 1598,
      "vid": 1599,
      "Ġ\"\");": 1600,
      "Before": 1601,
      "NE": 1602,
      "Process": 1603,
      "Ġsession": 1604,
      "lection": 1605,
      "Ġdirectory": 1606,
      "Uns": 1607,
      "PO": 1608,
      "Ġview": 1609,
      "Ġ10": 1610,
      "Elements": 1611,
      "est": 1612,
      "Ġ\");": 1613,
      "Listener": 1614,
      "gu": 1615,
      "VR": 1616,
      "ĠJOptionPane": 1617,
      "ms": 1618,
      "ces": 1619,
      "HexString": 1620,
      "SI": 1621,
      "Row": 1622,
      "from": 1623,
      "Null": 1624,
      "ocket": 1625,
      "PRO": 1626,
      "getStatus": 1627,
      "ated": 1628,
      "0000": 1629,
      "codeParam": 1630,
      "html": 1631,
      "Mil": 1632,
      "target": 1633,
      "Debug": 1634,
      "ĠcopyFile": 1635,
      ")));": 1636,
      "inue": 1637,
      "low": 1638,
      "raph": 1639,
      "iter": 1640,
      "Ġstate": 1641,
      "='": 1642,
      "getClass": 1643,
      "Ġnum": 1644,
      "Ġresp": 1645,
      "Arg": 1646,
      "Per": 1647,
      "Ġdownload": 1648,
      "Progress": 1649,
      "Auth": 1650,
      "Ġnode": 1651,
      "OK": 1652,
      "util": 1653,
      "Ġti": 1654,
      "US": 1655,
      "terator": 1656,
      "Model": 1657,
      "\\\",": 1658,
      "pxlen": 1659,
      "Millis": 1660,
      "Ġ(\"": 1661,
      "ession": 1662,
      "mar": 1663,
      "Unsupported": 1664,
      "Ġindex": 1665,
      "Ġdoc": 1666,
      "Ġwrite": 1667,
      "Page": 1668,
      "are": 1669,
      "Ġlen": 1670,
      "tocol": 1671,
      "ĠIllegal": 1672,
      "Root": 1673,
      "mi": 1674,
      "version": 1675,
      "LO": 1676,
      "destination": 1677,
      "ĠinputStream": 1678,
      "Ġinstance": 1679,
      "Ġreq": 1680,
      "www": 1681,
      "okie": 1682,
      "getF": 1683,
      "cept": 1684,
      "post": 1685,
      "cmEn": 1686,
      "Ġconvert": 1687,
      "use": 1688,
      "Ġquery": 1689,
      "Icon": 1690,
      "coding": 1691,
      "BeforeMD": 1692,
      "Could": 1693,
      "txt": 1694,
      "valid": 1695,
      "check": 1696,
      "etail": 1697,
      "DI": 1698,
      "Ġand": 1699,
      "(\"</": 1700,
      "Configuration": 1701,
      "Jar": 1702,
      "Ġtype": 1703,
      "\\\",\\\"": 1704,
      "ĠE": 1705,
      "login": 1706,
      "Ġrun": 1707,
      "DA": 1708,
      "image": 1709,
      "Ġ\"/\"": 1710,
      "'t": 1711,
      "Default": 1712,
      "Ġxml": 1713,
      "Build": 1714,
      "SC": 1715,
      "ier": 1716,
      "ale": 1717,
      "Ġcontinue": 1718,
      "he": 1719,
      "sc": 1720,
      "ĠMap": 1721,
      "warn": 1722,
      "ace": 1723,
      "mb": 1724,
      "11": 1725,
      "iet": 1726,
      "rs": 1727,
      "ĠDate": 1728,
      "move": 1729,
      "lected": 1730,
      "ransform": 1731,
      "do": 1732,
      "ĠDB": 1733,
      "LI": 1734,
      "cl": 1735,
      "Local": 1736,
      "NameValuePair": 1737,
      "AGE": 1738,
      "Link": 1739,
      "Impl": 1740,
      "FILE": 1741,
      "df": 1742,
      "Ġ\"<": 1743,
      "Column": 1744,
      "ner": 1745,
      "ĠRe": 1746,
      "eren": 1747,
      "\\\\": 1748,
      "patcher": 1749,
      "ĠConnection": 1750,
      "ized": 1751,
      "refix": 1752,
      "currentTime": 1753,
      "AB": 1754,
      "Ġhex": 1755,
      "otal": 1756,
      "On": 1757,
      "cur": 1758,
      "split": 1759,
      "ĠHttpResponse": 1760,
      "/\"": 1761,
      "ĠU": 1762,
      "valueOf": 1763,
      "Ġon": 1764,
      "getM": 1765,
      "vider": 1766,
      "Failed": 1767,
      "setDoOutput": 1768,
      "Ignore": 1769,
      "Ġy": 1770,
      "setAttribute": 1771,
      "ĠassertEquals": 1772,
      "Field": 1773,
      "tivity": 1774,
      "Ġ});": 1775,
      "alt": 1776,
      "odel": 1777,
      "getT": 1778,
      "chive": 1779,
      "ĠDefault": 1780,
      "For": 1781,
      "Hel": 1782,
      "getParent": 1783,
      "ped": 1784,
      "CategoryID": 1785,
      "ila": 1786,
      "filename": 1787,
      "TYPE": 1788,
      "toHexString": 1789,
      "rig": 1790,
      "protected": 1791,
      "MO": 1792,
      "map": 1793,
      "currentTimeMillis": 1794,
      "AI": 1795,
      "Ġcase": 1796,
      "Ġ\";": 1797,
      "ĠAND": 1798,
      "...\");": 1799,
      "NumberOf": 1800,
      "rect": 1801,
      "message": 1802,
      "pec": 1803,
      "Ġversion": 1804,
      "ends": 1805,
      "Ġconfig": 1806,
      "Ġexception": 1807,
      "EncodingException": 1808,
      "ĠinChannel": 1809,
      "stru": 1810,
      "ĠWHERE": 1811,
      "disconnect": 1812,
      "ĠSer": 1813,
      "Edit": 1814,
      "mpty": 1815,
      "ROM": 1816,
      "Ġfound": 1817,
      "000": 1818,
      "ĠPrint": 1819,
      "========": 1820,
      "Ġrow": 1821,
      "Stmt": 1822,
      "Doc": 1823,
      "ĠHash": 1824,
      "onent": 1825,
      "ication": 1826,
      "UnsupportedEncodingException": 1827,
      "Ġpre": 1828,
      "rix": 1829,
      "ating": 1830,
      "Ġbase": 1831,
      "Connect": 1832,
      "Ġproject": 1833,
      "Quiet": 1834,
      "ĠZipEntry": 1835,
      "idth": 1836,
      "server": 1837,
      "tachment": 1838,
      "Ġinstanceof": 1839,
      "etri": 1840,
      "Ġ};": 1841,
      "lation": 1842,
      "space": 1843,
      "old": 1844,
      "tml": 1845,
      "andom": 1846,
      "MP": 1847,
      "ont": 1848,
      "ret": 1849,
      "Ġsp": 1850,
      "Last": 1851,
      "Ġcontext": 1852,
      "ĠSQL": 1853,
      "Quietly": 1854,
      "main": 1855,
      "Ġformat": 1856,
      "play": 1857,
      "IgnoreCase": 1858,
      "ib": 1859,
      "Ġhas": 1860,
      "Ġob": 1861,
      "Tool": 1862,
      "fin": 1863,
      "jar": 1864,
      "Ġli": 1865,
      "getFile": 1866,
      "be": 1867,
      "ĠCo": 1868,
      "Timeout": 1869,
      "DATE": 1870,
      "Ġheader": 1871,
      "resource": 1872,
      "ance": 1873,
      "equalsIgnoreCase": 1874,
      "ĠinputLine": 1875,
      "ĠURLEncoder": 1876,
      "getEntity": 1877,
      "annot": 1878,
      "Argument": 1879,
      "atrix": 1880,
      "array": 1881,
      "Ġparams": 1882,
      "Ġlast": 1883,
      "ĠTh": 1884,
      "wer": 1885,
      "Ġtime": 1886,
      "rowable": 1887,
      "INF": 1888,
      "isDirectory": 1889,
      "createStatement": 1890,
      "ical": 1891,
      "loat": 1892,
      "SOP": 1893,
      "ke": 1894,
      "tili": 1895,
      "putUI": 1896,
      "materialType": 1897,
      "ĠsrcChannel": 1898,
      "duct": 1899,
      "imple": 1900,
      "AC": 1901,
      "getConnection": 1902,
      "mkdirs": 1903,
      "Ġuri": 1904,
      "Ġmsg": 1905,
      "Dcm": 1906,
      "Monitor": 1907,
      "lang": 1908,
      "Ġdocument": 1909,
      "ternal": 1910,
      "ĠTags": 1911,
      "ume": 1912,
      "num": 1913,
      "Ġbin": 1914,
      "ĠurlConn": 1915,
      "closeQuietly": 1916,
      "HttpClient": 1917,
      "ĠHttpGet": 1918,
      "getResponseCode": 1919,
      ".\",": 1920,
      "Pos": 1921,
      "Unable": 1922,
      "getDcm": 1923,
      "16": 1924,
      "Frame": 1925,
      "Ġparent": 1926,
      "hasNext": 1927,
      "Ġdouble": 1928,
      "ĊĠĠĠĠĠĠĠĠĠĠĠĠĠĠĠĠĠĠĠĠĠĠĠĠĠĠĠĠĠĠĠĠĠĠĠĠĠĠĠĠĠĠĠĠĠĠĠ": 1929,
      "Ġsha": 1930,
      "coder": 1931,
      "lear": 1932,
      "Filename": 1933,
      "Ġmethod": 1934,
      "setText": 1935,
      "application": 1936,
      "Ġfc": 1937,
      "ĠBase": 1938,
      "Ġstatement": 1939,
      "endsWith": 1940,
      "GER": 1941,
      "ao": 1942,
      "Ġupload": 1943,
      "Ġpost": 1944,
      "val": 1945,
      "Ġuid": 1946,
      "Msg": 1947,
      "Work": 1948,
      "Form": 1949,
      "args": 1950,
      "ĠBasic": 1951,
      "ĊĠĠĠĠĠĠĠĠĠĠĠĠĠĠĠĠĠĠĠĠĠĠĠĠĠĠĠĠĠĠĠĠĠĠĠĠĠĠĠĠĠĠĠĠĠĠĠĠ": 1952,
      "ado": 1953,
      "ResultSet": 1954,
      "TI": 1955,
      "Ġcol": 1956,
      "coded": 1957,
      "Ġdir": 1958,
      "ĠOutputStreamWriter": 1959,
      "lock": 1960,
      "Plugin": 1961,
      "reader": 1962,
      "tial": 1963,
      "ari": 1964,
      "Ġwith": 1965,
      "eters": 1966,
      "lot": 1967,
      "ĠFROM": 1968,
      "etails": 1969,
      "gent": 1970,
      "Ġit": 1971,
      "ĠsbValue": 1972,
      "Ġmap": 1973,
      "Schema": 1974,
      "Start": 1975,
      "ton": 1976,
      "ĠFTPClient": 1977,
      "Ġas": 1978,
      "ArgumentException": 1979,
      "dar": 1980,
      "Ġ5": 1981,
      "ĠLogger": 1982,
      "AN": 1983,
      "ĠElement": 1984,
      "upd": 1985,
      "uilder": 1986,
      "inputLine": 1987,
      "1024": 1988,
      "ĠsbValueBeforeMD": 1989,
      ">\"": 1990,
      "tension": 1991,
      "Double": 1992,
      "ĠDebug": 1993,
      "Ġ?,": 1994,
      "ĠoutFile": 1995,
      "Ġproperties": 1996,
      "09": 1997,
      "wd": 1998,
      "utton": 1999,
      "status": 2000,
      "IndexOf": 2001,
      "88": 2002,
      "stra": 2003,
      "getAttribute": 2004,
      "Ġpos": 2005,
      "ynch": 2006,
      "lastIndexOf": 2007,
      "ĠVector": 2008,
      "DATA": 2009,
      "ay": 2010,
      "local": 2011,
      "crypt": 2012,
      "ĊĊĠĠĠĠĠĠĠĠĠĠĠ": 2013,
      "tings": 2014,
      "VE": 2015,
      "can": 2016,
      "getText": 2017,
      "ence": 2018,
      "search": 2019,
      "ilure": 2020,
      "Ġrd": 2021,
      "LECT": 2022,
      "Ġlink": 2023,
      "etric": 2024,
      "Ġdelete": 2025,
      "fe": 2026,
      ")).": 2027,
      "Params": 2028,
      "setRequestMethod": 2029,
      "indow": 2030,
      "20": 2031,
      "msg": 2032,
      "save": 2033,
      "Ġtable": 2034,
      "setContent": 2035,
      "ĠBufferedWriter": 2036,
      "Ġac": 2037,
      "executeQuery": 2038,
      "Num": 2039,
      "ĠProperties": 2040,
      "Store": 2041,
      "Ġfailed": 2042,
      "ĠBig": 2043,
      "ByteArray": 2044,
      "ATE": 2045,
      "Ġauth": 2046,
      "Is": 2047,
      "Utili": 2048,
      "alen": 2049,
      "Ġba": 2050,
      "Throwable": 2051,
      "TAG": 2052,
      "Ġimp": 2053,
      "Ġhost": 2054,
      "ilable": 2055,
      "Samp": 2056,
      "her": 2057,
      "ich": 2058,
      "Body": 2059,
      "Ċĉĉ": 2060,
      "alendar": 2061,
      "Web": 2062,
      "Meta": 2063,
      "eight": 2064,
      "Ġport": 2065,
      "Ġconnect": 2066,
      "Ġtoken": 2067,
      "ABLE": 2068,
      "element": 2069,
      "sor": 2070,
      "Command": 2071,
      "Port": 2072,
      "pected": 2073,
      "Ġwr": 2074,
      "hoto": 2075,
      "ields": 2076,
      "Ġclose": 2077,
      "cip": 2078,
      "ĠJSON": 2079,
      "transferTo": 2080,
      "UPDATE": 2081,
      "EN": 2082,
      "ci": 2083,
      "Use": 2084,
      "ail": 2085,
      "ĠFileWriter": 2086,
      "Child": 2087,
      "flate": 2088,
      "getId": 2089,
      "Ġprint": 2090,
      "Lower": 2091,
      "ep": 2092,
      "Home": 2093,
      "ĠXML": 2094,
      "Ġ@": 2095,
      "entity": 2096,
      "Upload": 2097,
      "req": 2098,
      "FileNotFoundException": 2099,
      "Ġmain": 2100,
      "ĠoutChannel": 2101,
      "NextEntry": 2102,
      "iterator": 2103,
      "LowerCase": 2104,
      "RI": 2105,
      "(\"\"))": 2106,
      "doc": 2107,
      "angu": 2108,
      "Names": 2109,
      "ĠNode": 2110,
      "anguage": 2111,
      "Ġsave": 2112,
      "Ġentity": 2113,
      "Sy": 2114,
      "leted": 2115,
      "cu": 2116,
      "=?": 2117,
      "PAR": 2118,
      "ning": 2119,
      "Record": 2120,
      "ServletResponse": 2121,
      "Helper": 2122,
      "Cache": 2123,
      "ast": 2124,
      "ĠEn": 2125,
      "CON": 2126,
      "ASE": 2127,
      "ient": 2128,
      "reset": 2129,
      "lay": 2130,
      "ĠurlConnection": 2131,
      "Ġ<=": 2132,
      "ALUE": 2133,
      "udy": 2134,
      "toLowerCase": 2135,
      "ĠdstChannel": 2136,
      "BU": 2137,
      "ren": 2138,
      "ZE": 2139,
      "Empty": 2140,
      "build": 2141,
      "ĠPro": 2142,
      "replaceAll": 2143,
      "Box": 2144,
      "Ġfin": 2145,
      "Order": 2146,
      "nextToken": 2147,
      "Control": 2148,
      "Session": 2149,
      "ude": 2150,
      "ĠSQLException": 2151,
      "Valid": 2152,
      "gment": 2153,
      "...": 2154,
      "SELECT": 2155,
      "')": 2156,
      "TER": 2157,
      "Uri": 2158,
      "ard": 2159,
      "Archive": 2160,
      "hasM": 2161,
      "Lay": 2162,
      "59": 2163,
      "EX": 2164,
      "OP": 2165,
      "sing": 2166,
      "][": 2167,
      "ĠFileReader": 2168,
      "ĠJar": 2169,
      "Ġarg": 2170,
      "Ġlocal": 2171,
      "ĊĠĠĠĠĠĠĠĠĠĠĠĠĠĠĠĠĠĠĠĠĠĠĠĠĠĠĠĠĠĠĠĠĠĠĠĠĠĠĠĠĠĠĠ": 2172,
      "ready": 2173,
      "fileName": 2174,
      "Ġarray": 2175,
      "100": 2176,
      "Ġwhere": 2177,
      "Ġencoding": 2178,
      "AsStream": 2179,
      "ULL": 2180,
      "Ġbuilder": 2181,
      "quan": 2182,
      "Ġend": 2183,
      "hasMore": 2184,
      "Bits": 2185,
      "Sh": 2186,
      "ooser": 2187,
      "End": 2188,
      "erson": 2189,
      "TH": 2190,
      "ĠError": 2191,
      "Ġsw": 2192,
      "getParentFile": 2193,
      "enu": 2194,
      "ipher": 2195,
      "ransaction": 2196,
      "params": 2197,
      "Samples": 2198,
      "header": 2199,
      "ual": 2200,
      "Ġopen": 2201,
      "token": 2202,
      "ĠResultSet": 2203,
      "Ġcode": 2204,
      "Ġitem": 2205,
      "sed": 2206,
      "VER": 2207,
      "Xml": 2208,
      "Ġmax": 2209,
      "Bundle": 2210,
      "title": 2211,
      "go": 2212,
      "ĠH": 2213,
      "Alloc": 2214,
      "ignature": 2215,
      "ĠDefaultHttpClient": 2216,
      "Allocated": 2217,
      "25": 2218,
      "lag": 2219,
      "Panel": 2220,
      "ĠmessageDigest": 2221,
      "posit": 2222,
      "ustom": 2223,
      "TO": 2224,
      "ĠdestFile": 2225,
      "NTO": 2226,
      "Download": 2227,
      "Dataset": 2228,
      "icate": 2229,
      "Ġservice": 2230,
      "grlen": 2231,
      "NumberOfSamples": 2232,
      "BitsAllocated": 2233,
      "Buffered": 2234,
      "icon": 2235,
      "pi": 2236,
      "udi": 2237,
      "Ġ\\\"": 2238,
      "getLogger": 2239,
      "ZIP": 2240,
      "cParam": 2241,
      "ĠStatement": 2242,
      "ynchron": 2243,
      "])": 2244,
      "clear": 2245,
      "remove": 2246,
      "toByteArray": 2247,
      "Ġpage": 2248,
      "umer": 2249,
      "Ġdate": 2250,
      "fact": 2251,
      "SERT": 2252,
      "Ġchannel": 2253,
      "Ġparser": 2254,
      "getRequest": 2255,
      "ĠDcmParser": 2256,
      "Ġhttpclient": 2257,
      "mbol": 2258,
      "av": 2259,
      "getHeader": 2260,
      "dia": 2261,
      "Bean": 2262,
      "itial": 2263,
      "ino": 2264,
      "Ġevent": 2265,
      "Ġbuild": 2266,
      "ĠoutputStream": 2267,
      "apter": 2268,
      "AM": 2269,
      "Ob": 2270,
      "VERE": 2271,
      "ait": 2272,
      "yle": 2273,
      "Ġinsert": 2274,
      "ĠdcmEn": 2275,
      "properties": 2276,
      "ĠsourceChannel": 2277,
      "SEVERE": 2278,
      "getReadVR": 2279,
      "ĠhexString": 2280,
      "ĠThread": 2281,
      "ĠdcmEncParam": 2282,
      "App": 2283,
      "Ġdes": 2284,
      "ell": 2285,
      "ATION": 2286,
      "Tokenizer": 2287,
      "ĠIllegalArgumentException": 2288,
      "Ġq": 2289,
      "Protocol": 2290,
      "Provider": 2291,
      "TempFile": 2292,
      "8859": 2293,
      "udio": 2294,
      "KE": 2295,
      "abel": 2296,
      "ounds": 2297,
      "olume": 2298,
      "Filter": 2299,
      "trace": 2300,
      "ĠbytesRead": 2301,
      "order": 2302,
      "Pass": 2303,
      "Thread": 2304,
      "Change": 2305,
      "SSAGE": 2306,
      "ĠLOGGER": 2307,
      "Cur": 2308,
      "Ġalgorithm": 2309,
      "fine": 2310,
      "Regist": 2311,
      "config": 2312,
      "++,": 2313,
      "Ġoff": 2314,
      "ĠPrintWriter": 2315,
      "Cach": 2316,
      "schema": 2317,
      "Ġ[": 2318,
      "ĠResource": 2319,
      "ization": 2320,
      "parent": 2321,
      "CODE": 2322,
      "80": 2323,
      "Ret": 2324,
      "ia": 2325,
      "ible": 2326,
      "entic": 2327,
      "quence": 2328,
      "username": 2329,
      "Write": 2330,
      "Tools": 2331,
      "gle": 2332,
      "Ġbos": 2333,
      "INSERT": 2334,
      "Partner": 2335,
      "Destino": 2336,
      "Orig": 2337,
      "ld": 2338,
      "ĠSAX": 2339,
      "Ġurlc": 2340,
      "TypeID": 2341,
      "ĠInput": 2342,
      "Ġgr": 2343,
      "Ġiter": 2344,
      "ĠHttpPost": 2345,
      "Agent": 2346,
      "tainer": 2347,
      "MESSAGE": 2348,
      "position": 2349,
      "Ġroot": 2350,
      "getStatusLine": 2351,
      "find": 2352,
      "ulti": 2353,
      "Ġsynchron": 2354,
      "entries": 2355,
      "Ġsynchronized": 2356,
      "LOG": 2357,
      "vo": 2358,
      "lob": 2359,
      "itle": 2360,
      "andle": 2361,
      "UM": 2362,
      "tation": 2363,
      "ido": 2364,
      "unk": 2365,
      "tag": 2366,
      "ĠDo": 2367,
      "ServletRequest": 2368,
      "Access": 2369,
      "32": 2370,
      "node": 2371,
      "ank": 2372,
      "Ġlogin": 2373,
      "activity": 2374,
      "Task": 2375,
      "ade": 2376,
      "isDebug": 2377,
      "Ġprogress": 2378,
      "ï¿½ï¿½ï¿½ï¿½": 2379,
      "ooking": 2380,
      "BPartner": 2381,
      "Dyn": 2382,
      "FA": 2383,
      "ide": 2384,
      "rit": 2385,
      "ĠurlString": 2386,
      "Ġprocess": 2387,
      "au": 2388,
      "store": 2389,
      "newInstance": 2390,
      "Ġper": 2391,
      "Ġaction": 2392,
      "auth": 2393,
      "match": 2394,
      "po": 2395,
      "success": 2396,
      "xFF": 2397,
      "Ġ)": 2398,
      "getTime": 2399,
      "ĠDO": 2400,
      "showMessage": 2401,
      "transferFrom": 2402,
      "ĠBigInteger": 2403,
      "Volume": 2404,
      "Proxy": 2405,
      "gram": 2406,
      "ariable": 2407,
      "isDebugEnabled": 2408,
      "change": 2409,
      "Load": 2410,
      "referen": 2411,
      "Ġ1024": 2412,
      "BO": 2413,
      "ES": 2414,
      "Script": 2415,
      "lt": 2416,
      "uid": 2417,
      "inputStream": 2418,
      "lease": 2419,
      "Ġ\"</": 2420,
      "requiredTypeGroup": 2421,
      "details": 2422,
      "Ġsub": 2423,
      "createNew": 2424,
      "ft": 2425,
      "stamp": 2426,
      "ctor": 2427,
      "exit": 2428,
      "tot": 2429,
      "face": 2430,
      "ĠftpClient": 2431,
      "Description": 2432,
      "Sec": 2433,
      "method": 2434,
      "Ġ('": 2435,
      "cen": 2436,
      "root": 2437,
      "Ġpass": 2438,
      "ĠLong": 2439,
      "ĠDouble": 2440,
      "Dec": 2441,
      "Stat": 2442,
      "part": 2443,
      "ĠPattern": 2444,
      "55": 2445,
      "Ġprops": 2446,
      "200": 2447,
      "AP": 2448,
      "],": 2449,
      "ram": 2450,
      "tice": 2451,
      "getSe": 2452,
      "Ġbw": 2453,
      "UN": 2454,
      "Ġerr": 2455,
      "setB": 2456,
      "process": 2457,
      "=\\\"\"": 2458,
      "quantity": 2459,
      "Label": 2460,
      "ĠNoSuchAlgorithmException": 2461,
      "loader": 2462,
      "ĠinFile": 2463,
      "Login": 2464,
      "TION": 2465,
      "point": 2466,
      "Chooser": 2467,
      "Ġ24": 2468,
      "ransformer": 2469,
      "group": 2470,
      "kip": 2471,
      "ClassLoader": 2472,
      "imeType": 2473,
      "ULT": 2474,
      "sa": 2475,
      "ario": 2476,
      "setFile": 2477,
      "Ġusername": 2478,
      "SIZE": 2479,
      "bin": 2480,
      "bel": 2481,
      "Ġ(;": 2482,
      "oogle": 2483,
      "ackup": 2484,
      "Ġexecute": 2485,
      "Ġdefault": 2486,
      "ĠBasicNameValuePair": 2487,
      "Photo": 2488,
      "Ġsh": 2489,
      "core": 2490,
      "Ġgener": 2491,
      "hasMoreElements": 2492,
      "lish": 2493,
      "Ġinfo": 2494,
      "Ġstring": 2495,
      "LETE": 2496,
      "COD": 2497,
      "Button": 2498,
      "Job": 2499,
      "dst": 2500,
      "anner": 2501,
      "cy": 2502,
      "Cookie": 2503,
      "Ġexist": 2504,
      "ĠInputSource": 2505,
      "createNewFile": 2506,
      "Fe": 2507,
      "led": 2508,
      "Ġplugin": 2509,
      "isFile": 2510,
      "ward": 2511,
      "Open": 2512,
      "Val": 2513,
      "etch": 2514,
      "stmt": 2515,
      "Ġcur": 2516,
      "rack": 2517,
      "ĠURI": 2518,
      "ifest": 2519,
      "box": 2520,
      "Graph": 2521,
      "Vis": 2522,
      "sw": 2523,
      "Ġcl": 2524,
      "max": 2525,
      "HO": 2526,
      "True": 2527,
      "ĠSt": 2528,
      "Ġ\"',": 2529,
      "FileInputStream": 2530,
      "FileCopy": 2531,
      "Product": 2532,
      "096": 2533,
      "pository": 2534,
      "cat": 2535,
      "Ġdoes": 2536,
      "setDoInput": 2537,
      "Dispatcher": 2538,
      "################": 2539,
      "getUser": 2540,
      "Ġelement": 2541,
      "des": 2542,
      "Ġbooking": 2543,
      "straint": 2544,
      "Socket": 2545,
      "Ġ%": 2546,
      "files": 2547,
      "The": 2548,
      "pted": 2549,
      "ution": 2550,
      "yment": 2551,
      "Ġapp": 2552,
      "outFile": 2553,
      "peration": 2554,
      "clude": 2555,
      "umeration": 2556,
      "Po": 2557,
      "field": 2558,
      "not": 2559,
      "ud": 2560,
      "Ġsend": 2561,
      "nextElement": 2562,
      "BP": 2563,
      "Close": 2564,
      "Email": 2565,
      "TR": 2566,
      "page": 2567,
      "sum": 2568,
      "Ġ6": 2569,
      "orp": 2570,
      "ente": 2571,
      "dified": 2572,
      "TableName": 2573,
      "Collection": 2574,
      "Template": 2575,
      "Ġlocation": 2576,
      "Utilities": 2577,
      "CR": 2578,
      "MI": 2579,
      "qle": 2580,
      "Ġbo": 2581,
      "project": 2582,
      "dule": 2583,
      "----------------": 2584,
      "Word": 2585,
      "json": 2586,
      "Ġ\"]": 2587,
      "FileOutputStream": 2588,
      "Headers": 2589,
      "ProgressMonitor": 2590,
      "Ġ\":\"": 2591,
      "exion": 2592,
      "Ġobject": 2593,
      "ĠoStmt": 2594,
      "ĠImageIO": 2595,
      "Gener": 2596,
      "fter": 2597,
      "gine": 2598,
      "imal": 2599,
      "UseCach": 2600,
      "UseCaches": 2601,
      "17": 2602,
      "fis": 2603,
      "default": 2604,
      "ĠStringWriter": 2605,
      "Container": 2606,
      "unction": 2607,
      "Ġparse": 2608,
      "Ġaddress": 2609,
      "showMessageDialog": 2610,
      "Language": 2611,
      "metric": 2612,
      "Ġpart": 2613,
      "Ġbis": 2614,
      "****************": 2615,
      "KEY": 2616,
      "Cannot": 2617,
      "Point": 2618,
      "getB": 2619,
      "ĠINTO": 2620,
      "failure": 2621,
      "ToFile": 2622,
      "Series": 2623,
      "createTempFile": 2624,
      "body": 2625,
      "HTML": 2626,
      "Ġbaos": 2627,
      "ant": 2628,
      "ĠLink": 2629,
      "ĠByteArrayInputStream": 2630,
      "Iterator": 2631,
      "yy": 2632,
      "ĠRequest": 2633,
      "Ġtotal": 2634,
      "lib": 2635,
      "Ġremote": 2636,
      "destFile": 2637,
      "getResourceAsStream": 2638,
      "Ġ\\\"\"": 2639,
      ":\");": 2640,
      "Ġ;": 2641,
      "Ġfind": 2642,
      "Ġref": 2643,
      "ĠStringTokenizer": 2644,
      "logy": 2645,
      "Entries": 2646,
      "solver": 2647,
      "Ġcharset": 2648,
      "CS": 2649,
      "Ro": 2650,
      "(\"[": 2651,
      "admin": 2652,
      "coach": 2653,
      "ĠHttpClient": 2654,
      "getContentLength": 2655,
      "01": 2656,
      "full": 2657,
      "uper": 2658,
      "ĠNULL": 2659,
      "Interpre": 2660,
      "GET": 2661,
      "MS": 2662,
      "Max": 2663,
      "fos": 2664,
      "mary": 2665,
      "nown": 2666,
      "Ġignore": 2667,
      "select": 2668,
      "alm": 2669,
      "Ġregist": 2670,
      "Ġsc": 2671,
      "ĠGZIP": 2672,
      "Ġdispatcher": 2673,
      "]));": 2674,
      "ned": 2675,
      "Ġ\")": 2676,
      "Ġobj": 2677,
      "finition": 2678,
      "Dto": 2679,
      "gin": 2680,
      "Ġnext": 2681,
      "Ġ\"...\");": 2682,
      "setHeader": 2683,
      "Ġmonitor": 2684,
      "ĠoutStream": 2685,
      "Com": 2686,
      "address": 2687,
      "SET": 2688,
      "Component": 2689,
      "POST": 2690,
      "Symbol": 2691,
      "NS": 2692,
      "(\"&": 2693,
      "ĠSimple": 2694,
      "StateException": 2695,
      "Ġrand": 2696,
      "ĠhttpConn": 2697,
      "criptor": 2698,
      "isEmpty": 2699,
      "ill": 2700,
      "Ġviewer": 2701,
      "!\"": 2702,
      "Target": 2703,
      "ote": 2704,
      "plugin": 2705,
      "rup": 2706,
      "ĠStream": 2707,
      "Ġfolder": 2708,
      "ĠpreparedStatement": 2709,
      "Ġava": 2710,
      "ĠgetClass": 2711,
      "Ġalready": 2712,
      "ENT": 2713,
      "PX": 2714,
      "mg": 2715,
      "Ġhtml": 2716,
      "errorCount": 2717,
      "ĠerrorCount": 2718,
      "ĠassertTrue": 2719,
      "?,?,?,?,": 2720,
      "mit": 2721,
      "ract": 2722,
      "logger": 2723,
      "ĠIterator": 2724,
      "Ġprop": 2725,
      "ĠZipOutputStream": 2726,
      "('.": 2727,
      "ĠServlet": 2728,
      "Layout": 2729,
      "Ġab": 2730,
      "Ġdos": 2731,
      "cookie": 2732,
      "getReply": 2733,
      "ĠHashMap": 2734,
      "Bounds": 2735,
      "PRE": 2736,
      "download": 2737,
      "any": 2738,
      "Author": 2739,
      "ALUES": 2740,
      "=?,": 2741,
      "number": 2742,
      "sTo": 2743,
      "getDefault": 2744,
      "Ġfirst": 2745,
      "Ġmodel": 2746,
      "service": 2747,
      "Parameters": 2748,
      "getStatusCode": 2749,
      "LastModified": 2750,
      "Pattern": 2751,
      "War": 2752,
      "Ġle": 2753,
      "ĠUID": 2754,
      "Ġ=>": 2755,
      "putNextEntry": 2756,
      "lip": 2757,
      "setLong": 2758,
      "Classpath": 2759,
      "reden": 2760,
      "context": 2761,
      "direct": 2762,
      "Ġencrypt": 2763,
      "createImage": 2764,
      "DELETE": 2765,
      "Color": 2766,
      "ĠJSONObject": 2767,
      "FAULT": 2768,
      "PER": 2769,
      "edia": 2770,
      "rec": 2771,
      "cent": 2772,
      "Ġtask": 2773,
      "setUseCaches": 2774,
      "ish": 2775,
      "Matrix": 2776,
      "vie": 2777,
      "Ġold": 2778,
      "pass": 2779,
      "Ġpsta": 2780,
      "Unit": 2781,
      "Adapter": 2782,
      "ĠcontentType": 2783,
      "ĠDocumentBuilder": 2784,
      "inflate": 2785,
      "Study": 2786,
      "ater": 2787,
      "Search": 2788,
      "ĠDataset": 2789,
      "Buf": 2790,
      "ED": 2791,
      "JSON": 2792,
      "Variable": 2793,
      "Ġoc": 2794,
      "river": 2795,
      "mmun": 2796,
      "solve": 2797,
      "compare": 2798,
      "Cursor": 2799,
      "AO": 2800,
      "Vector": 2801,
      "ker": 2802,
      "regist": 2803,
      "Ġcall": 2804,
      "ĠFileFormat": 2805,
      "Ġwas": 2806,
      "LA": 2807,
      "ClassUID": 2808,
      "Ġcn": 2809,
      "entif": 2810,
      "round": 2811,
      "putUS": 2812,
      "ĠSet": 2813,
      "ilupd": 2814,
      "perty": 2815,
      "ĠHttpServletResponse": 2816,
      "Fact": 2817,
      "hasPixelData": 2818,
      "ĠDataInputStream": 2819,
      "NEMA": 2820,
      "ĠhasPixelData": 2821,
      "SOPInstanceUID": 2822,
      "SOPClassUID": 2823,
      "MetaInfo": 2824,
      "Ġgrlen": 2825,
      "Photometric": 2826,
      "SeriesInstanceUID": 2827,
      "Interpretation": 2828,
      "PXDATA": 2829,
      "ĠUIDs": 2830,
      "StudyInstanceUID": 2831,
      "PhotometricInterpretation": 2832,
      "Final": 2833,
      "OT": 2834,
      "Title": 2835,
      "eve": 2836,
      "ĠUser": 2837,
      "Ġ++": 2838,
      "Ref": 2839,
      "Ġcom": 2840,
      "Ġsearch": 2841,
      "Rows": 2842,
      "orpho": 2843,
      "Ver": 2844,
      "done": 2845,
      "ditor": 2846,
      "sv": 2847,
      "ws": 2848,
      "utf": 2849,
      "Ġtot": 2850,
      "Ġnumber": 2851,
      "Ġvalid": 2852,
      "DecodeParam": 2853,
      "itemCategoryID": 2854,
      "itemTypeID": 2855,
      "charAt": 2856,
      "DcmParser": 2857,
      "Ph": 2858,
      "SA": 2859,
      "sb": 2860,
      "ĠEx": 2861,
      "newDataset": 2862,
      "newDcmParser": 2863,
      "Ġbuff": 2864,
      "setDcm": 2865,
      "Types": 2866,
      "ĠAction": 2867,
      "parseDcm": 2868,
      "getReadLength": 2869,
      "getDcmHandler": 2870,
      "setDcmHandler": 2871,
      "parseDcmFile": 2872,
      "Ġcan": 2873,
      "Ġiis": 2874,
      "NG": 2875,
      "PA": 2876,
      "rid": 2877,
      "Ġexp": 2878,
      "Ġoption": 2879,
      "ĠHttpEntity": 2880,
      "ĠDatabase": 2881,
      "crypted": 2882,
      "brary": 2883,
      "ĠEnumeration": 2884,
      ">\";": 2885,
      "Tree": 2886,
      "ls": 2887,
      "vis": 2888,
      "{\\\"": 2889,
      "Ġorg": 2890,
      "inter": 2891,
      "ĠDcmEn": 2892,
      "Ġ<<": 2893,
      "ĠPixelData": 2894,
      "byteOrder": 2895,
      "Counter": 2896,
      "ĠoutputFile": 2897,
      "ĠpdReader": 2898,
      "ĠpdWriter": 2899,
      "ĠpdFact": 2900,
      "struction": 2901,
      "getDcmDecodeParam": 2902,
      "ĠDcmEncodeParam": 2903,
      "send": 2904,
      "Ġ$": 2905,
      "Ġms": 2906,
      "Ġstable": 2907,
      "Can": 2908,
      "Call": 2909,
      "Sub": 2910,
      "tx": 2911,
      "Report": 2912,
      "Ġsqle": 2913,
      "qual": 2914,
      "Ġjson": 2915,
      "Ids": 2916,
      "Ġproxy": 2917,
      "COM": 2918,
      "velBuild": 2919,
      "ember": 2920,
      "Contact": 2921,
      "ĠstableBuild": 2922,
      ">>": 2923,
      "men": 2924,
      ")),": 2925,
      "Ġ12": 2926,
      "fax": 2927,
      "<?": 2928,
      "Rsrc": 2929,
      "so": 2930,
      "OutOf": 2931,
      "Ġuc": 2932,
      "FFER": 2933,
      "setContentType": 2934,
      "Spec": 2935,
      "ertif": 2936,
      "TagName": 2937,
      "Ġfactory": 2938,
      "getContentType": 2939,
      "WAR": 2940,
      "stall": 2941,
      "newFile": 2942,
      "FilePath": 2943,
      "riting": 2944,
      "urlString": 2945,
      "rain": 2946,
      "4096": 2947,
      "si": 2948,
      "ServletContext": 2949,
      "DateFormat": 2950,
      "rupted": 2951,
      "jsp": 2952,
      "Ġsalt": 2953,
      "ĠAd": 2954,
      "Ġreading": 2955,
      "gion": 2956,
      "ule": 2957,
      "Ġss": 2958,
      "etwork": 2959,
      "Resolver": 2960,
      "blem": 2961,
      "Accept": 2962,
      "dbc": 2963,
      "Ġ\"=\"": 2964,
      "Ġprefix": 2965,
      "mmon": 2966,
      "ertificate": 2967,
      "Ġcommand": 2968,
      "Comple": 2969,
      "Ġorig": 2970,
      "Decimal": 2971,
      "ĠtotRead": 2972,
      "Ġext": 2973,
      "Ġurls": 2974,
      "lastModified": 2975,
      "ĠIllegalStateException": 2976,
      "Package": 2977,
      "event": 2978,
      "nb": 2979,
      "(\"#": 2980,
      "ĠMD": 2981,
      "Locale": 2982,
      "ived": 2983,
      "AMETER": 2984,
      "36": 2985,
      "NING": 2986,
      "Src": 2987,
      "document": 2988,
      "init": 2989,
      "rea": 2990,
      "tid": 2991,
      "Ġfz": 2992,
      "Invalid": 2993,
      "apt": 2994,
      "igh": 2995,
      "Database": 2996,
      "proxy": 2997,
      "curity": 2998,
      "SAX": 2999,
      "nex": 3000,
      "Ġcache": 3001,
      "Ġrecord": 3002,
      "Reply": 3003,
      "FO": 3004,
      "Total": 3005,
      "__": 3006,
      "sort": 3007,
      "Ġcook": 3008,
      "ĠAssert": 3009,
      "ached": 3010,
      "duc": 3011,
      "Ġreport": 3012,
      "iness": 3013,
      "ĠclassName": 3014,
      "pect": 3015,
      "usiness": 3016,
      "location": 3017,
      "parseDouble": 3018,
      "DAO": 3019,
      "Obj": 3020,
      "ritten": 3021,
      "Operation": 3022,
      "Wait": 3023,
      "matcher": 3024,
      "},": 3025,
      "()];": 3026,
      "Messages": 3027,
      "[])": 3028,
      "ORD": 3029,
      "Ġtitle": 3030,
      "INFO": 3031,
      "Prefix": 3032,
      "iss": 3033,
      "ored": 3034,
      "toFile": 3035,
      "ĠApp": 3036,
      "ĠhttpClient": 3037,
      "BoundsException": 3038,
      "Range": 3039,
      "skip": 3040,
      "Ġweb": 3041,
      "Ġhref": 3042,
      "Ġ--": 3043,
      "ĠZipInputStream": 3044,
      "Ċĉĉĉ": 3045,
      "Java": 3046,
      "salt": 3047,
      "uage": 3048,
      "Ġ\"-": 3049,
      "ther": 3050,
      "Ġ200": 3051,
      "outputFile": 3052,
      ")\";": 3053,
      "ISO": 3054,
      "ui": 3055,
      "Ġus": 3056,
      "ĠPath": 3057,
      "(\"\");": 3058,
      "ada": 3059,
      "ĠDi": 3060,
      "\")));": 3061,
      "Ġpstm": 3062,
      "Create": 3063,
      "man": 3064,
      "object": 3065,
      "pl": 3066,
      "ĊĊĠĠĠĠĠĠĠĠĠĠĠĠĠĠĠ": 3067,
      "Ġnewlink": 3068,
      "Ġemail": 3069,
      "INE": 3070,
      "Warning": 3071,
      "OutOfBoundsException": 3072,
      "ba": 3073,
      "ping": 3074,
      "session": 3075,
      "Ġwork": 3076,
      "ero": 3077,
      "anon": 3078,
      "Exec": 3079,
      "Ġbout": 3080,
      "Ġbuffered": 3081,
      "ctionary": 3082,
      "()),": 3083,
      "++++": 3084,
      "Ġhttppost": 3085,
      "ĠByteBuffer": 3086,
      "obj": 3087,
      "Sql": 3088,
      "cre": 3089,
      "ĠReader": 3090,
      "etad": 3091,
      "lain": 3092,
      "Ġpi": 3093,
      "arg": 3094,
      "Core": 3095,
      "ations": 3096,
      "Ġ100": 3097,
      "Ke": 3098,
      "LD": 3099,
      "iEvent": 3100,
      "Ġ\"\"": 3101,
      "Ġ\"?": 3102,
      "Ġpackage": 3103,
      "ĠAuth": 3104,
      "ĠsourceFile": 3105,
      "Ġtemplate": 3106,
      "listFiles": 3107,
      "mission": 3108,
      "double": 3109,
      "PARAMETER": 3110,
      "compareTo": 3111,
      ".,": 3112,
      "ula": 3113,
      "tials": 3114,
      "ĠSc": 3115,
      "api": 3116,
      "ORT": 3117,
      "apping": 3118,
      "ichier": 3119,
      "model": 3120,
      "erm": 3121,
      "upport": 3122,
      ")...": 3123,
      "CONT": 3124,
      "values": 3125,
      "getFirst": 3126,
      "================": 3127,
      "ĊĠĠĠĠĠĠĠĠĠĠĠĠĠĠĠĠĠĠĠĠĠĠĠĠĠĠĠĠĠĠĠĠĠĠĠĠĠĠĠĠĠĠĠĠĠĠĠĠĠĠĠ": 3128,
      "},{\\\"": 3129,
      "Li": 3130,
      "meta": 3131,
      "Ġ-=": 3132,
      "ĠDataOutputStream": 3133,
      "Viewer": 3134,
      "Processor": 3135,
      "redentials": 3136,
      "(_": 3137,
      "Calendar": 3138,
      "WT": 3139,
      "Width": 3140,
      "aw": 3141,
      "ili": 3142,
      "security": 3143,
      "rap": 3144,
      "Ġexpected": 3145,
      "ĠstmtDestino": 3146,
      "plain": 3147,
      "Ġ\"'\");": 3148,
      "Ġparameter": 3149,
      "18": 3150,
      "Pre": 3151,
      "ear": 3152,
      "Ġcal": 3153,
      "External": 3154,
      "ged": 3155,
      "setEntity": 3156,
      "ason": 3157,
      "Charset": 3158,
      "AsString": 3159,
      "Columns": 3160,
      "ients": 3161,
      "Illegal": 3162,
      "web": 3163,
      "Ġad": 3164,
      "orage": 3165,
      "Ġoutfile": 3166,
      "ĠBoolean": 3167,
      "ĠBASE": 3168,
      "ĠVALUES": 3169,
      "Ġfail": 3170,
      "etadata": 3171,
      "SH": 3172,
      "WHERE": 3173,
      "Window": 3174,
      "getKey": 3175,
      "getHost": 3176,
      "Ġinit": 3177,
      "Ġsuper": 3178,
      "Ġexists": 3179,
      "ĠMath": 3180,
      "Ġencode": 3181,
      "Ġseat": 3182,
      "ARY": 3183,
      "quivo": 3184,
      "ĠdbDyn": 3185,
      "getHeaderField": 3186,
      "RuntimeException": 3187,
      "cure": 3188,
      "Ġraw": 3189,
      "Ġtr": 3190,
      "Ġzos": 3191,
      "IPO": 3192,
      "getClassLoader": 3193,
      "Ġoptions": 3194,
      "WARNING": 3195,
      "Mail": 3196,
      "dl": 3197,
      "inv": 3198,
      "Ġ\"(": 3199,
      "ration": 3200,
      "Upper": 3201,
      "....": 3202,
      "Ġnotice": 3203,
      "ValuePairs": 3204,
      "nbsp": 3205,
      "04": 3206,
      "50": 3207,
      "ging": 3208,
      "}\",": 3209,
      "Off": 3210,
      "Compress": 3211,
      "Import": 3212,
      "Ġrows": 3213,
      "entication": 3214,
      "tate": 3215,
      "Ġne": 3216,
      "inFile": 3217,
      "cont": 3218,
      "Resources": 3219,
      "IndexOutOfBoundsException": 3220,
      "ĠClassLoader": 3221,
      "Ġimport": 3222,
      "references": 3223,
      "getSelected": 3224,
      "lue": 3225,
      "ou": 3226,
      "png": 3227,
      "getLocal": 3228,
      "FileChooser": 3229,
      "toUpper": 3230,
      "Results": 3231,
      "ync": 3232,
      "AIL": 3233,
      "Ġcolumn": 3234,
      "Return": 3235,
      "toUpperCase": 3236,
      "Site": 3237,
      "ique": 3238,
      "toURL": 3239,
      "Ġval": 3240,
      "directory": 3241,
      "available": 3242,
      "ArrayIndexOutOfBoundsException": 3243,
      "Delete": 3244,
      "ByTagName": 3245,
      "Ġcomponent": 3246,
      "Ġ[\"": 3247,
      "faxTools": 3248,
      "Html": 3249,
      "ati": 3250,
      "hex": 3251,
      "Ġ7": 3252,
      "ĠĠĠĠĠ": 3253,
      "getRoot": 3254,
      "Ġreply": 3255,
      "Sequence": 3256,
      "NOT": 3257,
      "ON": 3258,
      "VI": 3259,
      "ĠID": 3260,
      "ĠHTTP": 3261,
      "Ġip": 3262,
      "the": 3263,
      "\")).": 3264,
      "(\"\\\\": 3265,
      "Controller": 3266,
      "OPTION": 3267,
      "ustomer": 3268,
      "lem": 3269,
      "Ġ\"_": 3270,
      "Insert": 3271,
      "Extension": 3272,
      "ĠFileNotFoundException": 3273,
      "Ġman": 3274,
      "Ġresults": 3275,
      "head": 3276,
      "localhost": 3277,
      "BUG": 3278,
      "Ġoffset": 3279,
      ">(": 3280,
      "ah": 3281,
      "cs": 3282,
      "onth": 3283,
      "state": 3284,
      "Ġfetch": 3285,
      "reading": 3286,
      "Parse": 3287,
      "home": 3288,
      "Ġprotected": 3289,
      "MET": 3290,
      "ĠdestinationChannel": 3291,
      "56": 3292,
      "Area": 3293,
      "Bar": 3294,
      "Fields": 3295,
      "Match": 3296,
      "USER": 3297,
      "rt": 3298,
      "ini": 3299,
      "remote": 3300,
      "lan": 3301,
      "Ext": 3302,
      "decode": 3303,
      "Ġsite": 3304,
      "Ġ1000": 3305,
      "Ġjavax": 3306,
      "Ġdatabase": 3307,
      "://\"": 3308,
      "ĠXPath": 3309,
      "CHE": 3310,
      "Ġorder": 3311,
      "Ġgenerate": 3312,
      "WaitCursor": 3313,
      "Menu": 3314,
      "first": 3315,
      "ĠUnsupportedEncodingException": 3316,
      "seat": 3317,
      "liente": 3318,
      "outfile": 3319,
      "ĠDE": 3320,
      "lines": 3321,
      "ConnectTimeout": 3322,
      "dom": 3323,
      "Remote": 3324,
      "Definition": 3325,
      "ĠJava": 3326,
      "Selection": 3327,
      "Ġdescription": 3328,
      "Cre": 3329,
      "Pool": 3330,
      "Tmp": 3331,
      "eded": 3332,
      "plo": 3333,
      "ux": 3334,
      "ĠConfiguration": 3335,
      "getElements": 3336,
      "orary": 3337,
      "Ġpw": 3338,
      "Conf": 3339,
      "ragment": 3340,
      "ingDirectory": 3341,
      "MessageDigest": 3342,
      "ToHex": 3343,
      "Attachment": 3344,
      "aster": 3345,
      ".\";": 3346,
      "ĠAr": 3347,
      "enter": 3348,
      "constraint": 3349,
      "Ġhandle": 3350,
      "sourceFile": 3351,
      "Ġall": 3352,
      "ultipart": 3353,
      "BD": 3354,
      "known": 3355,
      "ĠĠĠĠĠĠĠĠĠĠĠ": 3356,
      "Ġ\"\",": 3357,
      "Idx": 3358,
      "ĠNOT": 3359,
      "NotNull": 3360,
      ";</": 3361,
      "Pri": 3362,
      "ĠCollection": 3363,
      "rase": 3364,
      "ĠdevelBuild": 3365,
      "READ": 3366,
      "DEBUG": 3367,
      "Transaction": 3368,
      "VAL": 3369,
      "gz": 3370,
      "var": 3371,
      "tex": 3372,
      "encoding": 3373,
      "setProperty": 3374,
      "closeEntry": 3375,
      "ĠexiEvent": 3376,
      "CHAR": 3377,
      "EditPart": 3378,
      ":&": 3379,
      "QUE": 3380,
      "assert": 3381,
      "iv": 3382,
      "pied": 3383,
      "uario": 3384,
      "ceived": 3385,
      "ubble": 3386,
      "Ġretri": 3387,
      "ital": 3388,
      "HttpServletRequest": 3389,
      "Ġover": 3390,
      "prop": 3391,
      "Ġseq": 3392,
      "ake": 3393,
      "DOM": 3394,
      "cipe": 3395,
      "Basic": 3396,
      "Da": 3397,
      "IT": 3398,
      "Transfer": 3399,
      "nd": 3400,
      "script": 3401,
      "nected": 3402,
      "Ġmp": 3403,
      "Changed": 3404,
      "19": 3405,
      "Var": 3406,
      "Ġloader": 3407,
      "Ġencoder": 3408,
      "fully": 3409,
      "getElementsByTagName": 3410,
      "Height": 3411,
      "cor": 3412,
      "ee": 3413,
      "width": 3414,
      "ĠQ": 3415,
      "Ġentries": 3416,
      "Ġinfile": 3417,
      "Ġbut": 3418,
      "ollow": 3419,
      "getResources": 3420,
      "contentType": 3421,
      "='\"": 3422,
      "DIR": 3423,
      "Dtos": 3424,
      "bers": 3425,
      "infile": 3426,
      "FileFormat": 3427,
      "Ġconexion": 3428,
      "intValue": 3429,
      "Ġisr": 3430,
      "ĠRandom": 3431,
      "ĠinputFile": 3432,
      "Ġlabel": 3433,
      "Ġconfiguration": 3434,
      "elementAt": 3435,
      "Ġ\\": 3436,
      "Ġimg": 3437,
      "(\",": 3438,
      "(\":\");": 3439,
      "Redirect": 3440,
      "ctual": 3441,
      "Cod": 3442,
      "Encoded": 3443,
      "DataSource": 3444,
      "Imported": 3445,
      "compile": 3446,
      "listen": 3447,
      "LOAD": 3448,
      "used": 3449,
      "ĠNodeList": 3450,
      "14": 3451,
      "Random": 3452,
      "here": 3453,
      "mln": 3454,
      "ĠStatus": 3455,
      "Ġtag": 3456,
      "Ġ\")\");": 3457,
      "itch": 3458,
      "Lock": 3459,
      "Ġattachment": 3460,
      "Descriptor": 3461,
      "mlns": 3462,
      "af": 3463,
      "boolean": 3464,
      "ground": 3465,
      "lc": 3466,
      "tab": 3467,
      "writer": 3468,
      "getR": 3469,
      "getType": 3470,
      "ROUP": 3471,
      "STRE": 3472,
      "img": 3473,
      "Options": 3474,
      "Ġlang": 3475,
      "ruptedException": 3476,
      "JE": 3477,
      "RA": 3478,
      "Save": 3479,
      "book": 3480,
      "gred": 3481,
      "long": 3482,
      "zz": 3483,
      "Ġ9": 3484,
      "allen": 3485,
      "Ġplain": 3486,
      "setStatus": 3487,
      "ĠSET": 3488,
      "Ġheight": 3489,
      "Ġextension": 3490,
      "Ġselected": 3491,
      "ĠsrcFile": 3492,
      "ship": 3493,
      "containsKey": 3494,
      "column": 3495,
      "Ġheaders": 3496,
      "Pointer": 3497,
      "ĠSimpleDateFormat": 3498,
      "dam": 3499,
      "run": 3500,
      "ĠCO": 3501,
      "ĠEntity": 3502,
      "getNode": 3503,
      "urity": 3504,
      "anize": 3505,
      "setConnectTimeout": 3506,
      "Ġme": 3507,
      "top": 3508,
      "\")))": 3509,
      "Ġchange": 3510,
      "Charact": 3511,
      "formation": 3512,
      "bytesRead": 3513,
      "layer": 3514,
      "256": 3515,
      "13": 3516,
      "ni": 3517,
      "ina": 3518,
      "etAddress": 3519,
      "cha": 3520,
      "ĠFileUtils": 3521,
      "oom": 3522,
      "ĠRank": 3523,
      "123": 3524,
      "ĠDocumentBuilderFactory": 3525,
      "%%": 3526,
      "GROUP": 3527,
      "OUT": 3528,
      "ĠUtil": 3529,
      "ĠContent": 3530,
      "rename": 3531,
      "setC": 3532,
      "Ġcontains": 3533,
      "ĠfilePath": 3534,
      "ĠAt": 3535,
      "damage": 3536,
      "AUT": 3537,
      "DF": 3538,
      "Main": 3539,
      "WN": 3540,
      "nable": 3541,
      "Ġbundle": 3542,
      "Ġthrown": 3543,
      "Ġver": 3544,
      "ĠIS": 3545,
      "MENT": 3546,
      "forward": 3547,
      "This": 3548,
      "Ġ\".\"": 3549,
      "Destination": 3550,
      "cense": 3551,
      "Ġparts": 3552,
      "ished": 3553,
      "15": 3554,
      "Ass": 3555,
      "LY": 3556,
      "getUrl": 3557,
      "Relation": 3558,
      "rays": 3559,
      "ĠgetServletContext": 3560,
      "inputFile": 3561,
      "requiredTypeName": 3562,
      "requiredTypeID": 3563,
      "requiredTypeCategoryID": 3564,
      "requiredTypeVolume": 3565,
      "PerJob": 3566,
      "activityName": 3567,
      "activityID": 3568,
      "requiredTypeGroupName": 3569,
      "requiredTypeGroupID": 3570,
      "total": 3571,
      "anonical": 3572,
      "damagePerJob": 3573,
      "Buff": 3574,
      "Signature": 3575,
      "WE": 3576,
      "ire": 3577,
      "ount": 3578,
      "off": 3579,
      "uring": 3580,
      "getNextEntry": 3581,
      "Ġfo": 3582,
      "Ġsort": 3583,
      "Ġschema": 3584,
      "Ġprob": 3585,
      "ĠTime": 3586,
      "ATUS": 3587,
      "Unknown": 3588,
      "ĠNull": 3589,
      "forName": 3590,
      "Ġ>>>": 3591,
      "ĠdbConn": 3592,
      "tify": 3593,
      "PROPER": 3594,
      "BufferedInputStream": 3595,
      "ClasspathEntry": 3596,
      "entifier": 3597,
      "655": 3598,
      "AV": 3599,
      "IC": 3600,
      "Lim": 3601,
      "pc": 3602,
      "ĠResponse": 3603,
      "ĠUrl": 3604,
      "Ġfull": 3605,
      "ĠSWT": 3606,
      "Ġclasspath": 3607,
      "Values": 3608,
      "ĠMo": 3609,
      "keySet": 3610,
      "ĠnameValuePairs": 3611,
      "DEFAULT": 3612,
      "srcChannel": 3613,
      "VersionCheck": 3614,
      "Performed": 3615,
      "Visible": 3616,
      "ductivity": 3617,
      "STREAM": 3618,
      "SL": 3619,
      "buff": 3620,
      "gener": 3621,
      "itive": 3622,
      "tect": 3623,
      "Ġ\").": 3624,
      "Ġfn": 3625,
      "Ġins": 3626,
      "ĠinStream": 3627,
      "Ġsum": 3628,
      "Ġshow": 3629,
      "unnable": 3630,
      "ĠTABLE": 3631,
      "Setting": 3632,
      "FIX": 3633,
      "CTION": 3634,
      "mark": 3635,
      "[@": 3636,
      "ora": 3637,
      "ĠurlStr": 3638,
      "Ġserial": 3639,
      "Ġsettings": 3640,
      "ify": 3641,
      "ified": 3642,
      "Modification": 3643,
      "getCurrent": 3644,
      "ĠXml": 3645,
      "charset": 3646,
      "DAP": 3647,
      "canWrite": 3648,
      "BUFFER": 3649,
      "register": 3650,
      "vision": 3651,
      "Completion": 3652,
      "TIPO": 3653,
      "ii": 3654,
      "pg": 3655,
      "writing": 3656,
      "atal": 3657,
      "ĠnewFile": 3658,
      "ump": 3659,
      "Ġmin": 3660,
      "Ġvar": 3661,
      "Ġform": 3662,
      "Ġarchive": 3663,
      "ĠServletException": 3664,
      "mension": 3665,
      "lueprint": 3666,
      "PAT": 3667,
      "ative": 3668,
      "fc": 3669,
      "():": 3670,
      "Ġfout": 3671,
      "Initial": 3672,
      "Ġmar": 3673,
      "ĠSe": 3674,
      "exp": 3675,
      "itmap": 3676,
      "ments": 3677,
      "Ġjob": 3678,
      "requiredTypeIcon": 3679,
      "('/": 3680,
      "Ġattribute": 3681,
      "LOC": 3682,
      "ĠDebugFile": 3683,
      "issing": 3684,
      "gredients": 3685,
      "65536": 3686,
      "cal": 3687,
      "cache": 3688,
      "Ġ(_": 3689,
      "amount": 3690,
      "Ġicon": 3691,
      "ublish": 3692,
      "unch": 3693,
      "nextLong": 3694,
      "getCanonical": 3695,
      "erence": 3696,
      "rammar": 3697,
      "JECT": 3698,
      ",\"": 3699,
      "mag": 3700,
      "Ġ#": 3701,
      "instance": 3702,
      "inary": 3703,
      "Engine": 3704,
      "ĠtoFile": 3705,
      "https": 3706,
      "modified": 3707,
      "ĠdoVersionCheck": 3708,
      "Sep": 3709,
      "sha": 3710,
      "ample": 3711,
      "php": 3712,
      "Ġmodif": 3713,
      "Registry": 3714,
      "PointerException": 3715,
      "After": 3716,
      "Float": 3717,
      "pd": 3718,
      "ĠKey": 3719,
      "Ġctx": 3720,
      "lative": 3721,
      "cket": 3722,
      "iler": 3723,
      "writeFile": 3724,
      "Arquivo": 3725,
      "Ġgroup": 3726,
      "ĠHashSet": 3727,
      "getRequestDispatcher": 3728,
      "02": 3729,
      "IM": 3730,
      "LL": 3731,
      "PI": 3732,
      "SION": 3733,
      "fs": 3734,
      "ling": 3735,
      "inst": 3736,
      "Ġcipher": 3737,
      "getLength": 3738,
      "getPassword": 3739,
      "Ġtxt": 3740,
      "added": 3741,
      "Exclude": 3742,
      "ĠDI": 3743,
      "Ġstm": 3744,
      "Ġwidth": 3745,
      "Props": 3746,
      "escription": 3747,
      "ĠJFileChooser": 3748,
      "Settings": 3749,
      "ĠhttpURLConnection": 3750,
      "ĠGUI": 3751,
      "ĠtempFile": 3752,
      "ification": 3753,
      "Ġ\",\"": 3754,
      "Frames": 3755,
      "BufferedOutputStream": 3756,
      "ĠSAXParser": 3757,
      "sae": 3758,
      "QUEST": 3759,
      "Cnt": 3760,
      "Gen": 3761,
      "TABLE": 3762,
      "dat": 3763,
      "eet": 3764,
      "tes": 3765,
      "FileToFile": 3766,
      "Ġsv": 3767,
      "lick": 3768,
      "ĠMalformedURLException": 3769,
      "Ġencoded": 3770,
      "STR": 3771,
      "Domain": 3772,
      "ORM": 3773,
      "Addr": 3774,
      "ĠtargetFile": 3775,
      "right": 3776,
      "structor": 3777,
      "WorkingDirectory": 3778,
      "lobal": 3779,
      "totRead": 3780,
      "udent": 3781,
      "ĠGZIPInputStream": 3782,
      "Ġcookie": 3783,
      "')\");": 3784,
      "Fin": 3785,
      "Que": 3786,
      "Track": 3787,
      "eo": 3788,
      "frame": 3789,
      "yFinal": 3790,
      "attachment": 3791,
      "newlink": 3792,
      "Ġini": 3793,
      "Ġby": 3794,
      "Ġsystem": 3795,
      "Ġmeta": 3796,
      "series": 3797,
      "agent": 3798,
      "oundary": 3799,
      "That": 3800,
      "ampo": 3801,
      "sWithin": 3802,
      "oft": 3803,
      "LinksWithin": 3804,
      "TIME": 3805,
      "Ġswitch": 3806,
      "getReplyCode": 3807,
      "Warnings": 3808,
      "allenge": 3809,
      "gzip": 3810,
      "site": 3811,
      "once": 3812,
      "sta": 3813,
      "lazz": 3814,
      "setTime": 3815,
      "exception": 3816,
      "props": 3817,
      "ActionEvent": 3818,
      "FTPReply": 3819,
      "arraycopy": 3820,
      "Short": 3821,
      "description": 3822,
      "Ġregistro": 3823,
      "('.');": 3824,
      "mmunity": 3825,
      "FS": 3826,
      "Min": 3827,
      "Print": 3828,
      "WL": 3829,
      "cc": 3830,
      "ise": 3831,
      "mer": 3832,
      "ĠCon": 3833,
      "resh": 3834,
      "etype": 3835,
      "orig": 3836,
      "Ġfe": 3837,
      "Ġreplace": 3838,
      "Ġmatch": 3839,
      "Ġconf": 3840,
      "Dimension": 3841,
      "Ġlines": 3842,
      "quire": 3843,
      "ĠServer": 3844,
      "ĠRequestDispatcher": 3845,
      "<?>": 3846,
      "ĠEntityUtils": 3847,
      "PORT": 3848,
      "Success": 3849,
      "Supp": 3850,
      "da": 3851,
      "study": 3852,
      "getContext": 3853,
      "rincip": 3854,
      "Ġfields": 3855,
      "Ġflag": 3856,
      "Exit": 3857,
      "dian": 3858,
      "Upd": 3859,
      "lementation": 3860,
      "Errors": 3861,
      "Ġ'/": 3862,
      "Ġchild": 3863,
      "alida": 3864,
      "Ġcontents": 3865,
      "Images": 3866,
      "ĠWeb": 3867,
      "istence": 3868,
      "=\");": 3869,
      "BIN": 3870,
      "Editor": 3871,
      "Md": 3872,
      "monitor": 3873,
      "task": 3874,
      "Ġra": 3875,
      "()\");": 3876,
      "orld": 3877,
      "Ġfield": 3878,
      "Ġfilter": 3879,
      "Ġfloat": 3880,
      "Namespace": 3881,
      ")))": 3882,
      "div": 3883,
      "ĠgetConnection": 3884,
      "ĠMatcher": 3885,
      "Ġuse": 3886,
      "Admin": 3887,
      "Ġparameters": 3888,
      "warning": 3889,
      "struct": 3890,
      "Positive": 3891,
      "!\",": 3892,
      "First": 3893,
      "MAX": 3894,
      "package": 3895,
      "getWriter": 3896,
      "ador": 3897,
      "Ġbackup": 3898,
      "umb": 3899,
      "nto": 3900,
      "ismatch": 3901,
      "redicate": 3902,
      "logout": 3903,
      "Ġxpath": 3904,
      "FormatException": 3905,
      "Tokens": 3906,
      "Ġresources": 3907,
      "return": 3908,
      "PROPERTY": 3909,
      "Cat": 3910,
      "EST": 3911,
      "OB": 3912,
      "SB": 3913,
      "SU": 3914,
      "google": 3915,
      "lat": 3916,
      "getChild": 3917,
      "ender": 3918,
      "(\"\\\"": 3919,
      "Ġnl": 3920,
      "Ġbubble": 3921,
      "isPositive": 3922,
      "Dictionary": 3923,
      "convert": 3924,
      "Problem": 3925,
      "ordinal": 3926,
      "ĠIN": 3927,
      "Decoder": 3928,
      "LEN": 3929,
      "Ġgd": 3930,
      "viron": 3931,
      "srcFile": 3932,
      "getSession": 3933,
      "fromFile": 3934,
      "heet": 3935,
      "Utility": 3936,
      "CONFI": 3937,
      "Points": 3938,
      "'\"": 3939,
      "IF": 3940,
      "Sum": 3941,
      "udit": 3942,
      "ĠConfig": 3943,
      "(\"\",": 3944,
      "Ġfw": 3945,
      "lim": 3946,
      "toArray": 3947,
      "dition": 3948,
      "hould": 3949,
      "Ġproperty": 3950,
      "AtName": 3951,
      "getDocument": 3952,
      "SERVER": 3953,
      "impBP": 3954,
      "IsImported": 3955,
      "isPositiveCompletion": 3956,
      "Media": 3957,
      "xs": 3958,
      "xff": 3959,
      "ĠK": 3960,
      "reet": 3961,
      "Ġfont": 3962,
      "Exp": 3963,
      "look": 3964,
      "Ġinitial": 3965,
      "Ġdesc": 3966,
      "ValueAsString": 3967,
      "ĠMy": 3968,
      "Fac": 3969,
      "ĠTR": 3970,
      "stract": 3971,
      "reply": 3972,
      "leep": 3973,
      "getV": 3974,
      "Ġpixel": 3975,
      "detect": 3976,
      "rip": 3977,
      "ĠSub": 3978,
      "Endian": 3979,
      "ĠassertThat": 3980,
      "vironment": 3981,
      "AS": 3982,
      "Db": 3983,
      "HE": 3984,
      "Pref": 3985,
      "Person": 3986,
      "Rand": 3987,
      "]).": 3988,
      "label": 3989,
      "Ġes": 3990,
      "iso": 3991,
      "Ġstore": 3992,
      "ĠMorpho": 3993,
      "progress": 3994,
      "ĠLanguage": 3995,
      "deleteOn": 3996,
      "Ġmodule": 3997,
      "ByName": 3998,
      "Org": 3999,
      "SCI": 4000,
      "ProtocolException": 4001,
      "Ġshort": 4002,
      "ĠGUIUtilities": 4003,
      "CONFIG": 4004,
      "48": 4005,
      "VALUE": 4006,
      "down": 4007,
      "rada": 4008,
      "Ġent": 4009,
      "Ġrollback": 4010,
      "resp": 4011,
      "release": 4012,
      "Ġph": 4013,
      "lig": 4014,
      "isr": 4015,
      "command": 4016,
      "Diff": 4017,
      "currentThread": 4018,
      "Ġzis": 4019,
      "icalViewer": 4020,
      "Authorization": 4021,
      "ExternalForm": 4022,
      "listener": 4023,
      "seriesUID": 4024,
      "studyUID": 4025,
      "Boolean": 4026,
      "OC": 4027,
      "Sort": 4028,
      "Trans": 4029,
      "Us": 4030,
      "fr": 4031,
      "ik": 4032,
      "mime": 4033,
      "ware": 4034,
      "report": 4035,
      "losing": 4036,
      "child": 4037,
      "Ġspec": 4038,
      "licit": 4039,
      "Connected": 4040,
      "ĠDAO": 4041,
      "ĠSocket": 4042,
      "toExternalForm": 4043,
      "mpres": 4044,
      "Ġhome": 4045,
      "abyFinal": 4046,
      "availupd": 4047,
      "make": 4048,
      "Ġcontact": 4049,
      "Interface": 4050,
      "Generator": 4051,
      "Ġabort": 4052,
      "BINARY": 4053,
      "ĠMorphology": 4054,
      "MER": 4055,
      "XT": 4056,
      "aj": 4057,
      "folder": 4058,
      "ĠClient": 4059,
      "Ġcor": 4060,
      "getProtocol": 4061,
      "(\"_": 4062,
      "Init": 4063,
      "Ġnsae": 4064,
      "setRead": 4065,
      "setEnabled": 4066,
      "ntax": 4067,
      "ape": 4068,
      "addform": 4069,
      "Mod": 4070,
      "ampos": 4071,
      "Ġfact": 4072,
      "getDate": 4073,
      "compress": 4074,
      "ĠconvertToHex": 4075,
      "Couldn": 4076,
      "Ġposition": 4077,
      "VERSION": 4078,
      "nexpected": 4079,
      "CONTENT": 4080,
      ".*": 4081,
      ";\");": 4082,
      "Ava": 4083,
      "CRE": 4084,
      "email": 4085,
      "algorithm": 4086,
      "lash": 4087,
      "Ġback": 4088,
      "Profile": 4089,
      "addHeader": 4090,
      "ĠreadAnd": 4091,
      "ĠRunnable": 4092,
      "Ġerrors": 4093,
      "ftpClient": 4094,
      "JarFile": 4095,
      "Feed": 4096,
      "lipse": 4097,
      "ĠDICOM": 4098,
      "LU": 4099,
      "PC": 4100,
      "bstract": 4101,
      "gif": 4102,
      "stion": 4103,
      "ĠWriter": 4104,
      "static": 4105,
      "getNo": 4106,
      "rop": 4107,
      "Ġpo": 4108,
      "Ġsocket": 4109,
      "Ġmismatch": 4110,
      "Ġdecode": 4111,
      "product": 4112,
      "ĠCalendar": 4113,
      "ĠGraph": 4114,
      "Nodes": 4115,
      "network": 4116,
      "maining": 4117,
      "Ġtokenizer": 4118,
      "ONLY": 4119,
      "AUTH": 4120,
      "deleteOnExit": 4121,
      "SCII": 4122,
      "29": 4123,
      "If": 4124,
      "Lib": 4125,
      "NSE": 4126,
      "UND": 4127,
      "ause": 4128,
      "glish": 4129,
      "jEdit": 4130,
      "tn": 4131,
      "wner": 4132,
      "Style": 4133,
      "getSystem": 4134,
      "newDocument": 4135,
      "setDefault": 4136,
      "setVisible": 4137,
      "Ġmas": 4138,
      "ĠSec": 4139,
      "ingle": 4140,
      "edido": 4141,
      "ObjectFactory": 4142,
      "ROME": 4143,
      "ĠImageInputStream": 4144,
      "GroupLen": 4145,
      "ĠjarFile": 4146,
      "DebugFile": 4147,
      "Loading": 4148,
      "ĠScanner": 4149,
      "VALID": 4150,
      "27": 4151,
      "30": 4152,
      "Lit": 4153,
      "cp": 4154,
      "iis": 4155,
      "jo": 4156,
      "ll": 4157,
      "style": 4158,
      "Ġtransfer": 4159,
      "ano": 4160,
      "Ġren": 4161,
      "Ġscript": 4162,
      "ĠSHA": 4163,
      "vide": 4164,
      "Country": 4165,
      "oke": 4166,
      "atureIds": 4167,
      "NumberOfFrames": 4168,
      "ĠLinked": 4169,
      "createImageInputStream": 4170,
      "assertEquals": 4171,
      "instUID": 4172,
      "Little": 4173,
      "21": 4174,
      "40": 4175,
      "IVR": 4176,
      "RNEMA": 4177,
      "fmi": 4178,
      "voc": 4179,
      "ĠĠĠĠĠĠĠĠĠĠĠĠĠĠĠ": 4180,
      "getCode": 4181,
      "ency": 4182,
      "lave": 4183,
      "putCS": 4184,
      "Ġpfact": 4185,
      "limin": 4186,
      "Require": 4187,
      "Ġinflate": 4188,
      "ĠSh": 4189,
      "OutFile": 4190,
      "ĠclassUID": 4191,
      "Top": 4192,
      "ĠACR": 4193,
      "ĠencodeParam": 4194,
      "Implicit": 4195,
      "ADO": 4196,
      "NOCH": 4197,
      "getReadTag": 4198,
      "materialVolume": 4199,
      "VRLittle": 4200,
      "MONOCH": 4201,
      "AIException": 4202,
      "materialTypeName": 4203,
      "materialTypeID": 4204,
      "materialTypeIcon": 4205,
      "materialTypeCategoryID": 4206,
      "ACRNEMA": 4207,
      "canRead": 4208,
      "setFileMetaInfo": 4209,
      "Ġcurr": 4210,
      "newFileMetaInfo": 4211,
      "skipGroupLen": 4212,
      "GROUPLEN": 4213,
      "WEB": 4214,
      "Ġprobable": 4215,
      "detectFileFormat": 4216,
      "ĠACRNEMA": 4217,
      "ImplicitVRLittle": 4218,
      "MONOCHROME": 4219,
      "ImplicitVRLittleEndian": 4220,
      "DS": 4221,
      "Json": 4222,
      "LS": 4223,
      "stm": 4224,
      "getData": 4225,
      "aller": 4226,
      "Ġmode": 4227,
      "Ġmatcher": 4228,
      "ĠTest": 4229,
      "endor": 4230,
      "(\"/\"))": 4231,
      "Ġyour": 4232,
      "ĊĠĠĠĠĠĠĠĠĠĠĠĠĠĠĠĠĠĠĠĠĠĠĠĠĠĠĠĠĠĠĠĠĠĠĠĠĠĠĠĠĠĠĠĠĠĠĠĠĠĠĠĠĠĠĠ": 4233,
      "Ġbody": 4234,
      "Ġavailable": 4235,
      "Requirement": 4236,
      "Full": 4237,
      "Font": 4238,
      "gen": 4239,
      "transform": 4240,
      "ze": 4241,
      "Ġap": 4242,
      "Ġup": 4243,
      "Ġque": 4244,
      "ĠComp": 4245,
      "ros": 4246,
      "lated": 4247,
      "Rewrite": 4248,
      "ĠDcm": 4249,
      "Ġstat": 4250,
      "ingException": 4251,
      "RES": 4252,
      "REQUEST": 4253,
      "display": 4254,
      "ĠqueryString": 4255,
      "ĠEX": 4256,
      "cipient": 4257,
      "Library": 4258,
      "Ġretrieve": 4259,
      "RequirementDtos": 4260,
      "Audio": 4261,
      "ASCII": 4262,
      "NUM": 4263,
      "Pi": 4264,
      "So": 4265,
      "cn": 4266,
      "Ġqu": 4267,
      "ĠFa": 4268,
      "stop": 4269,
      "getPixelData": 4270,
      "newReader": 4271,
      "newWriter": 4272,
      "(\"-": 4273,
      "Ġperson": 4274,
      "Ġmenu": 4275,
      "redi": 4276,
      "readPixelData": 4277,
      "Ġhandler": 4278,
      "writeHeader": 4279,
      "writePixelData": 4280,
      "writeDataset": 4281,
      "\\\"><": 4282,
      "Ġprotocol": 4283,
      "Ġdiff": 4284,
      "STATUS": 4285,
      "ĠImageOutputStream": 4286,
      "cryption": 4287,
      "Ġsuccessfully": 4288,
      "ĠDcmParserFactory": 4289,
      "reference": 4290,
      "setFileType": 4291,
      "createImageOutputStream": 4292,
      "ĠPixelDataReader": 4293,
      "ĠPixelDataWriter": 4294,
      "SAXException": 4295,
      "pdReader": 4296,
      "ĠreadAndRewrite": 4297,
      "ĠDcmObjectFactory": 4298,
      "getPixelDataArray": 4299,
      "Ali": 4300,
      "Block": 4301,
      "Mgr": 4302,
      "Ok": 4303,
      "Tx": 4304,
      "dist": 4305,
      "ĊĊĠĠĠĠĠĠĠĠĠĠĠĠĠĠĠĠĠĠĠ": 4306,
      "ins": 4307,
      "tim": 4308,
      "getO": 4309,
      "Ġistream": 4310,
      "Ġurlconn": 4311,
      "mem": 4312,
      "\\\"},{\\\"": 4313,
      "ecut": 4314,
      "parts": 4315,
      "ics": 4316,
      "***": 4317,
      "template": 4318,
      "backup": 4319,
      "(\"/\")": 4320,
      "hashbox": 4321,
      "Ġlatest": 4322,
      "begin": 4323,
      "ANCE": 4324,
      "ededRsrc": 4325,
      "ĠDAOException": 4326,
      "99": 4327,
      "Sc": 4328,
      "WORD": 4329,
      "job": 4330,
      "ĠY": 4331,
      "Ġ//": 4332,
      "Storage": 4333,
      "Ġcre": 4334,
      "getRow": 4335,
      "getJSON": 4336,
      "Ġtrans": 4337,
      "FileChannel": 4338,
      "StreamReader": 4339,
      "URE": 4340,
      "toURI": 4341,
      "Dig": 4342,
      "logies": 4343,
      "unc": 4344,
      "igDecimal": 4345,
      "ERR": 4346,
      "pace": 4347,
      "ĠMain": 4348,
      "Failure": 4349,
      "ĠTrans": 4350,
      "ĠGrammar": 4351,
      "HashMap": 4352,
      "height": 4353,
      "MODE": 4354,
      "Ġauthor": 4355,
      "ĠApplication": 4356,
      "getFirstChild": 4357,
      "Offset": 4358,
      "Cipher": 4359,
      "OF": 4360,
      "flag": 4361,
      "now": 4362,
      "system": 4363,
      "uct": 4364,
      "ĠCode": 4365,
      "Ġ},": 4366,
      "getServer": 4367,
      "putation": 4368,
      "Ġpe": 4369,
      "ĠfileList": 4370,
      "Ġ(!(": 4371,
      "cmd": 4372,
      "ression": 4373,
      "Ġ20": 4374,
      "getPort": 4375,
      "InterruptedException": 4376,
      "Ġ\"\\\"]": 4377,
      "ConfigurationException": 4378,
      "getMatrix": 4379,
      "resources": 4380,
      "Application": 4381,
      "Ġavailupd": 4382,
      "META": 4383,
      "limina": 4384,
      "Dat": 4385,
      "Look": 4386,
      "Show": 4387,
      "Transformer": 4388,
      "Zone": 4389,
      "href": 4390,
      "vt": 4391,
      "inChannel": 4392,
      "getLastModified": 4393,
      "sep": 4394,
      "Ġframe": 4395,
      "tool": 4396,
      "HttpServletResponse": 4397,
      "Ġtop": 4398,
      "ĠMatrix": 4399,
      "ersistence": 4400,
      "Ġencrypted": 4401,
      "Updated": 4402,
      "(((": 4403,
      "Ġhttpget": 4404,
      "Ġxmlns": 4405,
      "Attributes": 4406,
      "Ġprev": 4407,
      "Position": 4408,
      "aving": 4409,
      "Phone": 4410,
      "RsrcIdx": 4411,
      "ĠJavaCore": 4412,
      "ĠMorphologyTag": 4413,
      "Available": 4414,
      "Function": 4415,
      "Matcher": 4416,
      "VO": 4417,
      "]),": 4418,
      "dd": 4419,
      "mode": 4420,
      "pdf": 4421,
      "uk": 4422,
      "Ġcmd": 4423,
      "getError": 4424,
      "urface": 4425,
      "Ġdone": 4426,
      "vere": 4427,
      "verse": 4428,
      "Ġass": 4429,
      "Err": 4430,
      "Ġdialog": 4431,
      "ĠresponseCode": 4432,
      "protocol": 4433,
      "ethods": 4434,
      "ĠCipher": 4435,
      "Selected": 4436,
      "SSL": 4437,
      "color": 4438,
      "tmpFile": 4439,
      "viewer": 4440,
      "Ġobtain": 4441,
      "language": 4442,
      "Security": 4443,
      "Ġdoesn": 4444,
      "GIN": 4445,
      "Morpho": 4446,
      "Pwd": 4447,
      "Preferences": 4448,
      "Wrap": 4449,
      "css": 4450,
      "gi": 4451,
      "ven": 4452,
      "ĊĊĠĠĠĠĠĠĠĠĠĠĠĠĠĠĠĠĠĠĠĠĠĠĠ": 4453,
      "getSize": 4454,
      "ens": 4455,
      "licy": 4456,
      "uffix": 4457,
      "rac": 4458,
      "[],": 4459,
      "ĠBufferedImage": 4460,
      "words": 4461,
      "COMP": 4462,
      "REF": 4463,
      "Ġnames": 4464,
      "ĠtmpFile": 4465,
      "('\\": 4466,
      "ĠzipFile": 4467,
      "images": 4468,
      "ĠService": 4469,
      "FormEntity": 4470,
      "Syntax": 4471,
      "ĠactionPerformed": 4472,
      "Keep": 4473,
      "Ġmanifest": 4474,
      "ahoo": 4475,
      "EncodedFormEntity": 4476,
      "ĠUrlEncodedFormEntity": 4477,
      "ĠLanguageMorpho": 4478,
      "ĠLanguageMorphologies": 4479,
      "1000": 4480,
      "Elem": 4481,
      "My": 4482,
      "cbuf": 4483,
      "random": 4484,
      "sleep": 4485,
      "ĊĠĠĠĠĠ": 4486,
      "ĠParser": 4487,
      "retri": 4488,
      "aly": 4489,
      "Ġequal": 4490,
      "setValue": 4491,
      "Ġmaster": 4492,
      "conf": 4493,
      "Ġactual": 4494,
      "Ġprovider": 4495,
      "ĠRoot": 4496,
      "Ġarti": 4497,
      "ĠLDAP": 4498,
      "complete": 4499,
      "SchemaAnd": 4500,
      "aux": 4501,
      "Execution": 4502,
      "Character": 4503,
      "ĠAttribute": 4504,
      "PATH": 4505,
      ".\"": 4506,
      "EC": 4507,
      "OD": 4508,
      "RSet": 4509,
      "Support": 4510,
      "sr": 4511,
      "sURLConnection": 4512,
      "Ġcas": 4513,
      "Ġred": 4514,
      "Ġreal": 4515,
      "Res": 4516,
      "rim": 4517,
      "setNull": 4518,
      "Ġ'*": 4519,
      "property": 4520,
      "timeout": 4521,
      "ĠGener": 4522,
      "ZipEntry": 4523,
      "ĠsetP": 4524,
      "Ġzout": 4525,
      "dbDyn": 4526,
      "Display": 4527,
      "Ġlike": 4528,
      "getReplyString": 4529,
      "Ġextract": 4530,
      "Ċĉĉĉĉ": 4531,
      "renameTo": 4532,
      "SchemaAndTableName": 4533,
      "Current": 4534,
      "It": 4535,
      "Me": 4536,
      "ae": 4537,
      "ĠTypes": 4538,
      "Ġcannot": 4539,
      "severe": 4540,
      "urned": 4541,
      "FileReader": 4542,
      "Ġpk": 4543,
      "Ġborder": 4544,
      "ĠclassLoader": 4545,
      "classpath": 4546,
      "iveMode": 4547,
      "Ġdisplay": 4548,
      "ĠCofaxTools": 4549,
      "headers": 4550,
      "################################": 4551,
      "Redirects": 4552,
      "setReadTimeout": 4553,
      "ĠequalTo": 4554,
      "Follow": 4555,
      "Mem": 4556,
      "PreparedStatement": 4557,
      "SY": 4558,
      "Tr": 4559,
      "_\"": 4560,
      "bundle": 4561,
      "nws": 4562,
      "getURL": 4563,
      "getWork": 4564,
      "Ġnow": 4565,
      "deleted": 4566,
      "Ġso": 4567,
      "mpar": 4568,
      "English": 4569,
      "Ġdel": 4570,
      "Attr": 4571,
      "Ġservlet": 4572,
      "ĠassertNotNull": 4573,
      "Authentication": 4574,
      "changeWorkingDirectory": 4575,
      "/\");": 4576,
      "=\"))": 4577,
      "Backup": 4578,
      "Flag": 4579,
      "ass": 4580,
      "dc": 4581,
      "dr": 4582,
      "ful": 4583,
      "hel": 4584,
      "spec": 4585,
      "ĠQuery": 4586,
      "StringUtils": 4587,
      "(\"%": 4588,
      "ados": 4589,
      "Ġresolve": 4590,
      "ationException": 4591,
      "Ġdebug": 4592,
      "addElement": 4593,
      "ToString": 4594,
      "ĠMan": 4595,
      "ĠMatch": 4596,
      "fail": 4597,
      "ressWarnings": 4598,
      "className": 4599,
      "ĠGet": 4600,
      "entrySet": 4601,
      "sheet": 4602,
      "okies": 4603,
      "ĠPrintStream": 4604,
      "lotData": 4605,
      "swing": 4606,
      "SuppressWarnings": 4607,
      "Metadata": 4608,
      "je": 4609,
      "rand": 4610,
      "tit": 4611,
      "getG": 4612,
      "Exists": 4613,
      "Repository": 4614,
      "outChannel": 4615,
      "Ġsalida": 4616,
      "Ġmake": 4617,
      "ClassNotFoundException": 4618,
      "peed": 4619,
      "illa": 4620,
      "Ġhar": 4621,
      "writeln": 4622,
      "filePath": 4623,
      "Ġdecoder": 4624,
      "oll": 4625,
      "INVALID": 4626,
      "Allow": 4627,
      "ransp": 4628,
      "=\").": 4629,
      "Mapping": 4630,
      "Constant": 4631,
      "Ġcounter": 4632,
      "results": 4633,
      "Ġ\"\\\"\");": 4634,
      "ĠBigDecimal": 4635,
      "ArchiveEntry": 4636,
      "ĠJarFile": 4637,
      "ĠSubProgressMonitor": 4638,
      "Capt": 4639,
      "Detail": 4640,
      "fg": 4641,
      "font": 4642,
      "hide": 4643,
      "utdown": 4644,
      "getColumn": 4645,
      "seq": 4646,
      "ĠinC": 4647,
      "setMatrix": 4648,
      "urlStr": 4649,
      "Ġmust": 4650,
      "ĠSurface": 4651,
      "apped": 4652,
      "Ġhuc": 4653,
      "Ġhave": 4654,
      "ĠfileOutputStream": 4655,
      "Ġare": 4656,
      "Device": 4657,
      "ĠAD": 4658,
      "tempFile": 4659,
      "ious": 4660,
      "Ġmodified": 4661,
      "ĠUsed": 4662,
      "Ġsplit": 4663,
      "Ġtokens": 4664,
      "Layer": 4665,
      "matches": 4666,
      "ĠDOM": 4667,
      "CODING": 4668,
      "LanguageName": 4669,
      "VICE": 4670,
      "correct": 4671,
      "magen": 4672,
      "!!": 4673,
      "Fragment": 4674,
      "Tab": 4675,
      "WS": 4676,
      "ead": 4677,
      "float": 4678,
      "window": 4679,
      "Ġri": 4680,
      "Ġge": 4681,
      "ĠLine": 4682,
      "getI": 4683,
      "getSource": 4684,
      "getFileName": 4685,
      "getQuery": 4686,
      "arge": 4687,
      "Ġremove": 4688,
      "Conexion": 4689,
      "setName": 4690,
      "Enum": 4691,
      "Ġwhen": 4692,
      "ĠgetResource": 4693,
      "Contents": 4694,
      "Ġarr": 4695,
      "DoArquivo": 4696,
      "ĠfromFile": 4697,
      "Ġidx": 4698,
      "ORI": 4699,
      "marsh": 4700,
      "Ġprep": 4701,
      "tokens": 4702,
      "Ġqry": 4703,
      "CODEMP": 4704,
      "ility": 4705,
      "Details": 4706,
      "MM": 4707,
      "Member": 4708,
      "One": 4709,
      "Run": 4710,
      "Written": 4711,
      "cr": 4712,
      "Ġone": 4713,
      "Ġcm": 4714,
      "enha": 4715,
      "Ġie": 4716,
      "Reputation": 4717,
      "ubor": 4718,
      "isValid": 4719,
      "units": 4720,
      "ĠHttpStatus": 4721,
      "cheme": 4722,
      "ĠDataSource": 4723,
      "Complete": 4724,
      "getPh": 4725,
      "notice": 4726,
      "Only": 4727,
      "ancel": 4728,
      "Ġbuildxml": 4729,
      "Ġoriginal": 4730,
      "CREATE": 4731,
      "FollowRedirects": 4732,
      "BER": 4733,
      "BASE": 4734,
      "Done": 4735,
      "OWL": 4736,
      "ĠCh": 4737,
      "utor": 4738,
      "getEmail": 4739,
      "Ġic": 4740,
      "Instruction": 4741,
      "rypt": 4742,
      "concept": 4743,
      "osite": 4744,
      "LENG": 4745,
      "Ġgraph": 4746,
      "Notif": 4747,
      "locate": 4748,
      "ĠpsImpl": 4749,
      "getSimple": 4750,
      "SERVICE": 4751,
      "ĠSAXException": 4752,
      "Secure": 4753,
      "Ġ\"]\");": 4754,
      "Ġmodify": 4755,
      "rincipal": 4756,
      "Campo": 4757,
      "Das": 4758,
      "NULL": 4759,
      "PS": 4760,
      "aRe": 4761,
      "ias": 4762,
      "jpg": 4763,
      "pack": 4764,
      "Ġamount": 4765,
      "Ġesc": 4766,
      "Export": 4767,
      "ĠSE": 4768,
      "redit": 4769,
      "Ġaudio": 4770,
      "ormal": 4771,
      "ĠIJ": 4772,
      "Erro": 4773,
      "Ġgoogle": 4774,
      "ĠRE": 4775,
      "UserReputation": 4776,
      "ALL": 4777,
      "board": 4778,
      "gnored": 4779,
      "uster": 4780,
      "Ġ\"-\"": 4781,
      "Ġlanguage": 4782,
      "(-": 4783,
      "Large": 4784,
      "Mar": 4785,
      "city": 4786,
      "rator": 4787,
      "tered": 4788,
      "Strings": 4789,
      "Ġpref": 4790,
      "Internal": 4791,
      "Realm": 4792,
      "settings": 4793,
      "Ġdf": 4794,
      "Ġmapping": 4795,
      "rowser": 4796,
      "concat": 4797,
      "person": 4798,
      "vers": 4799,
      "Ġdeleted": 4800,
      "ĠHttpServletRequest": 4801,
      "Ġrotate": 4802,
      "Ġaccess": 4803,
      "ideo": 4804,
      "ĠDEFAULT": 4805,
      "getCanonicalPath": 4806,
      "ntology": 4807,
      "Certificate": 4808,
      "Es": 4809,
      "IST": 4810,
      "Network": 4811,
      "Sp": 4812,
      "Slot": 4813,
      "asp": 4814,
      "we": 4815,
      "ymbol": 4816,
      "(\"{": 4817,
      "ĠStringReader": 4818,
      "Ġshould": 4819,
      "apache": 4820,
      "ĠBuild": 4821,
      "osition": 4822,
      "ĠMAX": 4823,
      "Def": 4824,
      "ErrorMsg": 4825,
      "Username": 4826,
      "Implementation": 4827,
      "Ġke": 4828,
      "ActionListener": 4829,
      "ĠresourceName": 4830,
      "LOB": 4831,
      "Ġyou": 4832,
      "ĠJSONArray": 4833,
      "2001": 4834,
      "ĠGZIPOutputStream": 4835,
      "IllegalArgumentException": 4836,
      "Summary": 4837,
      "lookup": 4838,
      "newDocumentBuilder": 4839,
      "LENGTH": 4840,
      ">\")": 4841,
      "BI": 4842,
      "Cap": 4843,
      "FL": 4844,
      "IG": 4845,
      "Pedido": 4846,
      "bl": 4847,
      "day": 4848,
      "js": 4849,
      "xis": 4850,
      "ĠUtils": 4851,
      "ĠProject": 4852,
      "reg": 4853,
      "record": 4854,
      "resolve": 4855,
      "getHome": 4856,
      "attribute": 4857,
      "rotate": 4858,
      "dec": 4859,
      "Recipe": 4860,
      "URLEncoder": 4861,
      "Ġconstruct": 4862,
      "apro": 4863,
      "addRequest": 4864,
      "ords": 4865,
      "Ġcould": 4866,
      "ĠdestChannel": 4867,
      "FILI": 4868,
      "Ġcreated": 4869,
      "Ġze": 4870,
      "Ġrslt": 4871,
      "Ġloading": 4872,
      "getSh": 4873,
      "ĠstatusCode": 4874,
      "keys": 4875,
      "Symbols": 4876,
      "tools": 4877,
      "22": 4878,
      ":/": 4879,
      "CA": 4880,
      "CC": 4881,
      "Pack": 4882,
      "Term": 4883,
      "ai": 4884,
      "bum": 4885,
      "dt": 4886,
      "wo": 4887,
      "ĠValue": 4888,
      "ĠProcess": 4889,
      "rer": 4890,
      "Ġcity": 4891,
      "Ġclazz": 4892,
      "Ġignored": 4893,
      "selected": 4894,
      "Ġsupported": 4895,
      "setDate": 4896,
      "Ġda": 4897,
      "ĠmimeType": 4898,
      "ClassName": 4899,
      "avail": 4900,
      "Deleted": 4901,
      "Locator": 4902,
      "Segment": 4903,
      "short": 4904,
      "Company": 4905,
      "Compiler": 4906,
      "Struct": 4907,
      "Active": 4908,
      "Ġmovie": 4909,
      "lector": 4910,
      "targetFile": 4911,
      "Ġtile": 4912,
      "ĠMapped": 4913,
      "CONNE": 4914,
      "FOUND": 4915,
      "ĠSAXParserFactory": 4916,
      "ĠsvF": 4917,
      "getContextClassLoader": 4918,
      "OBJECT": 4919,
      "ĠTRUE": 4920,
      "MERC": 4921,
      "SyntaxException": 4922,
      ":</": 4923,
      "Tile": 4924,
      "draw": 4925,
      "flip": 4926,
      "na": 4927,
      "rate": 4928,
      "trans": 4929,
      "ster": 4930,
      "Ġcached": 4931,
      "getCo": 4932,
      "getOption": 4933,
      "getMethod": 4934,
      "ssible": 4935,
      "secure": 4936,
      "urlen": 4937,
      "Ġfi": 4938,
      "Ġfr": 4939,
      "Ġdist": 4940,
      "writeable": 4941,
      "Ġexport": 4942,
      "addPart": 4943,
      "ĠAc": 4944,
      "Ġchunk": 4945,
      "ĠFZ": 4946,
      "Ġgzip": 4947,
      "ĠZipFile": 4948,
      "Account": 4949,
      "HostException": 4950,
      "Ġmod": 4951,
      "Disposition": 4952,
      "Ġunwriteable": 4953,
      "Ġnodes": 4954,
      "Ġonto": 4955,
      "Scripts": 4956,
      "Combo": 4957,
      "atis": 4958,
      "urlencoded": 4959,
      "10000": 4960,
      "CU": 4961,
      "MIN": 4962,
      "QU": 4963,
      "Ren": 4964,
      "ULogger": 4965,
      "cut": 4966,
      "qry": 4967,
      "sent": 4968,
      "Ġrc": 4969,
      "ĠERROR": 4970,
      "Stamp": 4971,
      "ams": 4972,
      "ament": 4973,
      "Ġcampos": 4974,
      "roid": 4975,
      "Ġfichier": 4976,
      "Ġpri": 4977,
      "Ġboundary": 4978,
      "Ġdbo": 4979,
      "urlConn": 4980,
      "Outage": 4981,
      "cons": 4982,
      "logia": 4983,
      "Ġjdbc": 4984,
      "Ġdevice": 4985,
      "ando": 4986,
      "Ġprogram": 4987,
      "Deplo": 4988,
      "Ġgui": 4989,
      "zipEntry": 4990,
      "ĠNULogger": 4991,
      "Module": 4992,
      "Ġupdated": 4993,
      "Interaction": 4994,
      "retKey": 4995,
      "ACAO": 4996,
      "fecha": 4997,
      "ĠArrays": 4998,
      "ĠmpEntity": 4999,
      "lcnt": 5000,
      "ModificationDefinition": 5001,
      "getJSONObject": 5002,
      "ĠBuildException": 5003,
      "06": 5004,
      ">\",": 5005,
      "BR": 5006,
      "Del": 5007,
      "IS": 5008,
      "Put": 5009,
      "TM": 5010,
      "XY": 5011,
      "_.": 5012,
      "ca": 5013,
      "fields": 5014,
      "mapping": 5015,
      "pri": 5016,
      "pref": 5017,
      "prefix": 5018,
      "tig": 5019,
      "getLong": 5020,
      "getParams": 5021,
      "ority": 5022,
      "Ġfunction": 5023,
      "arr": 5024,
      "ans": 5025,
      "Ġsignature": 5026,
      "setMessage": 5027,
      "ĠBitmap": 5028,
      "Ġwill": 5029,
      "cond": 5030,
      "unit": 5031,
      "ĠjEdit": 5032,
      "Paths": 5033,
      "ĠgetContent": 5034,
      "ĠPost": 5035,
      "ĠTe": 5036,
      "ĠTree": 5037,
      "ĠjavaProject": 5038,
      "ĠresultSet": 5039,
      "ĠhttpResponse": 5040,
      "COL": 5041,
      "omet": 5042,
      "Manifest": 5043,
      "ĠdestinationFile": 5044,
      "Ġ32": 5045,
      "ĠzipEntry": 5046,
      "getPri": 5047,
      "showWaitCursor": 5048,
      "preStat": 5049,
      "tivator": 5050,
      "Ġano": 5051,
      "Ġ\"&\"": 5052,
      "CODFILI": 5053,
      "Route": 5054,
      "baos": 5055,
      "enterLocal": 5056,
      "Ġbubblesort": 5057,
      "iki": 5058,
      "Lookup": 5059,
      "Ġredlines": 5060,
      "ĠsetPrepareStatement": 5061,
      "ĠCofaxToolsUtil": 5062,
      "ĠMatchEvent": 5063,
      "Capture": 5064,
      "hideWaitCursor": 5065,
      "MimeType": 5066,
      "OS": 5067,
      "way": 5068,
      "ĠName": 5069,
      "region": 5070,
      "Ġcp": 5071,
      "getEvent": 5072,
      "ĠfSep": 5073,
      "channel": 5074,
      "Rep": 5075,
      "Ġmember": 5076,
      "ĠSSL": 5077,
      "Program": 5078,
      "())));": 5079,
      "readObject": 5080,
      "writeBytes": 5081,
      "ota": 5082,
      "ĠbyteArray": 5083,
      "Ġ->": 5084,
      "hop": 5085,
      "Ġop": 5086,
      "ĠHttpRequest": 5087,
      "LED": 5088,
      "ĠTool": 5089,
      "Ġseed": 5090,
      "Mouse": 5091,
      "Ġ\"/\");": 5092,
      "erer": 5093,
      "imum": 5094,
      "Ġbeen": 5095,
      "Ġlay": 5096,
      "valu": 5097,
      "getTextContent": 5098,
      "ENCODING": 5099,
      "GraphicalViewer": 5100,
      "Ġcanal": 5101,
      "Keys": 5102,
      "ParseException": 5103,
      "Ġoverwrite": 5104,
      "modifiedTable": 5105,
      "Facet": 5106,
      "member": 5107,
      "ĠLDAPException": 5108,
      ":\\": 5109,
      "Down": 5110,
      "GB": 5111,
      "fn": 5112,
      "ice": 5113,
      "ving": 5114,
      "ĠCheck": 5115,
      "getNext": 5116,
      "getLocation": 5117,
      "Ġtransformer": 5118,
      "ross": 5119,
      "Ġrealm": 5120,
      "Ġinstall": 5121,
      "Conver": 5122,
      "setLayout": 5123,
      "Ġstyle": 5124,
      "IOUtils": 5125,
      "digo": 5126,
      "verage": 5127,
      "Ġenc": 5128,
      "ĠInter": 5129,
      "ĠIndex": 5130,
      "ĠRuntime": 5131,
      "Ġpanel": 5132,
      "mod": 5133,
      "Ġdomain": 5134,
      "ARCHAR": 5135,
      "inputstream": 5136,
      "ĠcontentLength": 5137,
      "XMLSchema": 5138,
      "gnment": 5139,
      "emb": 5140,
      "=?\");": 5141,
      "rective": 5142,
      "Variables": 5143,
      "mmunication": 5144,
      "192": 5145,
      "original": 5146,
      "LUGIN": 5147,
      "CODFILIAL": 5148,
      "/*": 5149,
      "Mime": 5150,
      "SV": 5151,
      "elimina": 5152,
      "jb": 5153,
      "wait": 5154,
      "ĠPassword": 5155,
      "Ġupd": 5156,
      "tep": 5157,
      "allocate": 5158,
      "Ġpredicate": 5159,
      "ulo": 5160,
      "def": 5161,
      "rib": 5162,
      "ges": 5163,
      "ined": 5164,
      "aped": 5165,
      "Chunk": 5166,
      "IDs": 5167,
      "ĠgetString": 5168,
      "ĠModel": 5169,
      "Ġprofile": 5170,
      "ĠdestDir": 5171,
      "ĠFI": 5172,
      "Building": 5173,
      "copyFile": 5174,
      "ĠObjectInputStream": 5175,
      "obot": 5176,
      "getResponseMessage": 5177,
      "iltersTo": 5178,
      "ĠstartTime": 5179,
      "estor": 5180,
      "ĠnumRead": 5181,
      "ĠHashtable": 5182,
      "Original": 5183,
      "MSG": 5184,
      "Ġoccur": 5185,
      "Ġcalcu": 5186,
      "invoke": 5187,
      "Updater": 5188,
      "retrieve": 5189,
      "CaptureLinksWithin": 5190,
      "'\").": 5191,
      "Binary": 5192,
      "PLUGIN": 5193,
      "]\",": 5194,
      "cas": 5195,
      "void": 5196,
      "xsi": 5197,
      "zbin": 5198,
      "ĠColor": 5199,
      "Ġcb": 5200,
      "sec": 5201,
      "Ġtar": 5202,
      "Ġtrain": 5203,
      "Ġpm": 5204,
      "Ġee": 5205,
      "Ġrec": 5206,
      "setLastModified": 5207,
      "Classes": 5208,
      "export": 5209,
      "exao": 5210,
      "extension": 5211,
      "tom": 5212,
      "serial": 5213,
      "ĠBU": 5214,
      "Ġvec": 5215,
      "iece": 5216,
      "pers": 5217,
      "Ġcopied": 5218,
      "--;": 5219,
      "ventory": 5220,
      "ĠGrid": 5221,
      "Mock": 5222,
      "ĠvalueAfter": 5223,
      "Ġalg": 5224,
      "getPlugin": 5225,
      "separatorChar": 5226,
      "ĠClassNotFoundException": 5227,
      "working": 5228,
      "Ġcomplete": 5229,
      "ACK": 5230,
      "ĠlinkOrig": 5231,
      "MetaData": 5232,
      "gov": 5233,
      "ORDER": 5234,
      "latform": 5235,
      "Ġkeys": 5236,
      "23": 5237,
      "Empres": 5238,
      "Unexpected": 5239,
      "by": 5240,
      "give": 5241,
      "ktop": 5242,
      "wh": 5243,
      "za": 5244,
      "ĠHeader": 5245,
      "inStream": 5246,
      "ness": 5247,
      "Ġiterator": 5248,
      "(\"\")": 5249,
      "Ġsr": 5250,
      "ĠDriver": 5251,
      "Ġexten": 5252,
      "igned": 5253,
      "tillcnt": 5254,
      "Payment": 5255,
      "ĠIClasspathEntry": 5256,
      "ĠMultipart": 5257,
      "ĠPlugin": 5258,
      "ObjectId": 5259,
      "ĠFrame": 5260,
      "Ġgz": 5261,
      "?,?": 5262,
      "getContentEncoding": 5263,
      "ookKeep": 5264,
      "Ġlocale": 5265,
      "JarURLConnection": 5266,
      "LIST": 5267,
      "PassiveMode": 5268,
      "Stats": 5269,
      "yyyy": 5270,
      "coachstr": 5271,
      "Ġscanner": 5272,
      "domain": 5273,
      "Price": 5274,
      "generate": 5275,
      "TIMEOUT": 5276,
      "Ġrender": 5277,
      "MERCADO": 5278,
      "amento": 5279,
      "ĠvalueAfterMD": 5280,
      "ookKeepr": 5281,
      "Bad": 5282,
      "Customer": 5283,
      "Holder": 5284,
      "Raw": 5285,
      "SP": 5286,
      "World": 5287,
      "cached": 5288,
      "gt": 5289,
      "nate": 5290,
      "real": 5291,
      "getWidth": 5292,
      "ending": 5293,
      "Ġpid": 5294,
      "Ġpattern": 5295,
      "device": 5296,
      "ĠStringUtils": 5297,
      "ategor": 5298,
      "setError": 5299,
      "Ġdl": 5300,
      "isode": 5301,
      "Ġmissing": 5302,
      "servlet": 5303,
      "asA": 5304,
      "velo": 5305,
      "agram": 5306,
      "INT": 5307,
      "ATOR": 5308,
      "ĠForm": 5309,
      "Ġsequence": 5310,
      "mount": 5311,
      "Ġxsi": 5312,
      "Ġdigester": 5313,
      "Ġallow": 5314,
      "bose": 5315,
      "SSWORD": 5316,
      "Temporary": 5317,
      "MAN": 5318,
      "Permission": 5319,
      "JarEntry": 5320,
      "Links": 5321,
      "EXI": 5322,
      "ĠJarEntry": 5323,
      "********************************": 5324,
      "ĠnumberOf": 5325,
      "MailSetting": 5326,
      "ĠconexionBD": 5327,
      ")\",": 5328,
      "Ap": 5329,
      "ANT": 5330,
      "Cand": 5331,
      "Ftp": 5332,
      "OM": 5333,
      "Right": 5334,
      "SPE": 5335,
      "Score": 5336,
      "filter": 5337,
      "high": 5338,
      "lina": 5339,
      "ĠTo": 5340,
      "ĠConstants": 5341,
      "ĠĠĠĠĠĠĠĠĠĠĠĠĠĠĠĠ": 5342,
      "Ġcredentials": 5343,
      "Ġii": 5344,
      "Ġtab": 5345,
      "Ġ\"\"));": 5346,
      "Ġinstream": 5347,
      "ates": 5348,
      "ĠsTx": 5349,
      "coes": 5350,
      "CofaxTools": 5351,
      "[][]": 5352,
      "Ġaux": 5353,
      "addActionListener": 5354,
      "tics": 5355,
      "ĠIProject": 5356,
      "edora": 5357,
      "Fax": 5358,
      "provider": 5359,
      "ĠhttpRequest": 5360,
      "ĠentryName": 5361,
      "CESS": 5362,
      "ĠON": 5363,
      "ĠindexCounter": 5364,
      "AILED": 5365,
      "ciplina": 5366,
      "author": 5367,
      "getBusiness": 5368,
      "PREFIX": 5369,
      "UnknownHostException": 5370,
      "ĠLinkedList": 5371,
      "ĠobtainUserReputation": 5372,
      "rectives": 5373,
      "509": 5374,
      "Batch": 5375,
      "Img": 5376,
      "Multi": 5377,
      "lu": 5378,
      "Ġ.": 5379,
      "Ġln": 5380,
      "ĠUn": 5381,
      "ĠĠĠĠĠĠ": 5382,
      "getIn": 5383,
      "getBundle": 5384,
      "attach": 5385,
      "(\"(": 5386,
      "Ġprivate": 5387,
      "Ġpwd": 5388,
      "Ġbutton": 5389,
      "urls": 5390,
      "peline": 5391,
      "Productivity": 5392,
      "ĠfileOut": 5393,
      "Environment": 5394,
      "found": 5395,
      "ĠAp": 5396,
      "ĠTransformer": 5397,
      "ĠJLabel": 5398,
      "NumberFormatException": 5399,
      "ĠObjectOutputStream": 5400,
      "TEXT": 5401,
      "Ġks": 5402,
      "destinationFile": 5403,
      "Forward": 5404,
      "Ġformatter": 5405,
      "feed": 5406,
      "Passwd": 5407,
      "straints": 5408,
      "Role": 5409,
      "ĠprefixResolver": 5410,
      "getNodeValue": 5411,
      "NUMBER": 5412,
      "enterLocalPassiveMode": 5413,
      "ĠMatchEventFactory": 5414,
      "CLA": 5415,
      "Metric": 5416,
      "Non": 5417,
      "PUT": 5418,
      "ta": 5419,
      "where": 5420,
      "ï¼": 5421,
      "ĠNo": 5422,
      "erred": 5423,
      "stat": 5424,
      "getHeight": 5425,
      "Ġtc": 5426,
      "Ġ\"%": 5427,
      "Ġinter": 5428,
      "Concept": 5429,
      "raight": 5430,
      "ĠSen": 5431,
      "ĠSession": 5432,
      "Ġreturned": 5433,
      "ather": 5434,
      "peri": 5435,
      "Arch": 5436,
      "eclipse": 5437,
      "Lines": 5438,
      "appendChild": 5439,
      "ugh": 5440,
      "ĠImp": 5441,
      "edit": 5442,
      "ĠTask": 5443,
      "Ġsec": 5444,
      "ĠNetwork": 5445,
      "ĠuserId": 5446,
      "ĠLogin": 5447,
      "imer": 5448,
      "getDescription": 5449,
      "types": 5450,
      "ĠtargetChannel": 5451,
      "prev": 5452,
      "CEP": 5453,
      "Copying": 5454,
      "PROVE": 5455,
      "ĊĠĠĠĠĠĠĠĠĠĠĠĠĠĠĠĠĠĠĠĠĠĠĠĠĠĠĠĠĠĠĠĠĠĠĠĠĠĠĠĠĠĠĠĠĠĠĠĠĠĠĠĠĠĠĠĠĠĠĠ": 5456,
      "PARAM": 5457,
      "hasMoreTokens": 5458,
      "UNK": 5459,
      "setBigDecimal": 5460,
      "HOST": 5461,
      "ĠStraight": 5462,
      "sole": 5463,
      "vocation": 5464,
      "Ġharness": 5465,
      "Ġextends": 5466,
      "ĠStraightStreamReader": 5467,
      "28": 5468,
      "78": 5469,
      "DL": 5470,
      "Em": 5471,
      "LSA": 5472,
      "SCHE": 5473,
      "bib": 5474,
      "block": 5475,
      "ick": 5476,
      "px": 5477,
      "rn": 5478,
      "rong": 5479,
      "repository": 5480,
      "left": 5481,
      "Ġ}));": 5482,
      "Ġca": 5483,
      "Ġcustom": 5484,
      "Rec": 5485,
      "Ġstop": 5486,
      "Ġstavailupd": 5487,
      "Encrypt": 5488,
      "Ġexe": 5489,
      "addContent": 5490,
      "Datastream": 5491,
      "DataStore": 5492,
      "ĠgetFile": 5493,
      "Ġchem": 5494,
      "ĠInstruction": 5495,
      "ioe": 5496,
      "Ġ25": 5497,
      "ĠValid": 5498,
      "CharArray": 5499,
      "present": 5500,
      "country": 5501,
      "DOWN": 5502,
      "Ġrole": 5503,
      "NullPointerException": 5504,
      "getTitle": 5505,
      "ĠBasicHttp": 5506,
      "=?\";": 5507,
      "enticator": 5508,
      "Ġperm": 5509,
      "Closed": 5510,
      "metaLevel": 5511,
      "consume": 5512,
      "38": 5513,
      "60": 5514,
      "Cliente": 5515,
      "FINE": 5516,
      "FAILED": 5517,
      "Rating": 5518,
      "Send": 5519,
      "Space": 5520,
      "category": 5521,
      "fatal": 5522,
      "nm": 5523,
      "zilla": 5524,
      "Ġte": 5525,
      "Ġcat": 5526,
      "(\"//": 5527,
      "loWorld": 5528,
      "ĠDownload": 5529,
      "Ġclassname": 5530,
      "Encode": 5531,
      "olr": 5532,
      "olding": 5533,
      "ByteBuffer": 5534,
      "Ġenv": 5535,
      "Ġlinesep": 5536,
      "Ġsecure": 5537,
      "REG": 5538,
      "Quote": 5539,
      "indexset": 5540,
      "Separator": 5541,
      "SystemException": 5542,
      "responseCode": 5543,
      "ServiceImpl": 5544,
      "formance": 5545,
      "ĠbaseDir": 5546,
      "ĠCore": 5547,
      "AccessFile": 5548,
      "Ġrefused": 5549,
      "pectr": 5550,
      "lank": 5551,
      "getRuntime": 5552,
      "Notification": 5553,
      "Abstract": 5554,
      "PK": 5555,
      "Pe": 5556,
      "ĠPar": 5557,
      "Ġcut": 5558,
      "Ġcliente": 5559,
      "getFolder": 5560,
      "getTest": 5561,
      "Ġfs": 5562,
      "lar": 5563,
      "Ġempty": 5564,
      "Region": 5565,
      "Ġbig": 5566,
      "urlConnection": 5567,
      "Ġmime": 5568,
      "peg": 5569,
      "essag": 5570,
      "Ġhp": 5571,
      "abort": 5572,
      "writeObject": 5573,
      "Ġag": 5574,
      "ĠAPI": 5575,
      "ĠfromFileName": 5576,
      "Mapper": 5577,
      "ffff": 5578,
      "SSION": 5579,
      "Ġ\"'\";": 5580,
      "(\"/\");": 5581,
      "Ġbegin": 5582,
      "Ġany": 5583,
      "Ġcompany": 5584,
      "DIT": 5585,
      "ĠCommon": 5586,
      "Ġuploaded": 5587,
      "ENCODE": 5588,
      "aptor": 5589,
      "crement": 5590,
      "........": 5591,
      "getSelectedFile": 5592,
      "IMAGE": 5593,
      "HEAD": 5594,
      "SecurityException": 5595,
      "mparams": 5596,
      "CampoDoArquivo": 5597,
      "Ġescaped": 5598,
      "atistics": 5599,
      "CofaxToolsFTP": 5600,
      "pectrum": 5601,
      ")\"": 5602,
      "._": 5603,
      "/>\\": 5604,
      ":\",": 5605,
      ":\\\\": 5606,
      "FT": 5607,
      "IVE": 5608,
      "MAR": 5609,
      "den": 5610,
      "handle": 5611,
      "luster": 5612,
      "oai": 5613,
      "xF": 5614,
      "Ġer": 5615,
      "Ġoo": 5616,
      "ĠFailed": 5617,
      "lecu": 5618,
      "Ġcs": 5619,
      "getController": 5620,
      "Ġnon": 5621,
      "Ġsuch": 5622,
      "Ġduring": 5623,
      "isConnected": 5624,
      "Ġmi": 5625,
      "rail": 5626,
      "serv": 5627,
      "spital": 5628,
      "istrator": 5629,
      "ĠbyteCount": 5630,
      "Ġafter": 5631,
      "panel": 5632,
      "Ġchallenge": 5633,
      "ĠInetAddress": 5634,
      "ĠIngredients": 5635,
      "ElementText": 5636,
      "UTE": 5637,
      "MapMode": 5638,
      "ĠvalueBeforeMD": 5639,
      "ifier": 5640,
      "getPropertyValueAsString": 5641,
      "ĠImageIcon": 5642,
      "notify": 5643,
      "clientCheck": 5644,
      "lectron": 5645,
      "getFull": 5646,
      "Help": 5647,
      "ĠpreStat": 5648,
      "ĠtableName": 5649,
      "cured": 5650,
      "Feature": 5651,
      "TRUE": 5652,
      "?,?,?,?,?,?,?,?,": 5653,
      "Ġusing": 5654,
      "ĠCollections": 5655,
      "Ġserializer": 5656,
      "oftware": 5657,
      "Wrapper": 5658,
      "ransport": 5659,
      "rossref": 5660,
      "ĠBUFFER": 5661,
      "03": 5662,
      "EMP": 5663,
      "FOR": 5664,
      "NatureIds": 5665,
      "fm": 5666,
      "iber": 5667,
      "pr": 5668,
      "tas": 5669,
      "xName": 5670,
      "Ġcalendar": 5671,
      "getX": 5672,
      "getLast": 5673,
      "atype": 5674,
      "aterial": 5675,
      "enc": 5676,
      "Inte": 5677,
      "ĠFileCopy": 5678,
      "URCE": 5679,
      "Ġmet": 5680,
      "ĠSource": 5681,
      "ĠfileLength": 5682,
      "ackground": 5683,
      "Ġjet": 5684,
      "DataFile": 5685,
      "Ġ(((": 5686,
      "ĠoRSet": 5687,
      "ĠPlease": 5688,
      "failed": 5689,
      "httppost": 5690,
      "bertas": 5691,
      "ĠNe": 5692,
      "setStringAtName": 5693,
      "SOURCE": 5694,
      "getAction": 5695,
      "archive": 5696,
      "Left": 5697,
      "phone": 5698,
      "POS": 5699,
      "SITE": 5700,
      "Ġdownloaded": 5701,
      "validate": 5702,
      "2048": 5703,
      "TERN": 5704,
      "ĠJarURLConnection": 5705,
      "fined": 5706,
      "Policy": 5707,
      "tidade": 5708,
      "(\",\");": 5709,
      "%%%%": 5710,
      "Ġchildren": 5711,
      "EmpresasA": 5712,
      "essagingException": 5713,
      "ibernate": 5714,
      "EmpresasAbertas": 5715,
      "BL": 5716,
      "EVE": 5717,
      "Mer": 5718,
      "Math": 5719,
      "Simple": 5720,
      "UUID": 5721,
      "bile": 5722,
      "ium": 5723,
      "Ġlet": 5724,
      "research": 5725,
      "stal": 5726,
      "getH": 5727,
      "getImage": 5728,
      "getAll": 5729,
      "getJarFile": 5730,
      "Ġtree": 5731,
      "Ġ\"\")": 5732,
      "Ġ\".\");": 5733,
      "Ġnewzbin": 5734,
      "Ins": 5735,
      "gex": 5736,
      "Ġsk": 5737,
      "setParameter": 5738,
      "Ġthat": 5739,
      "ClassPath": 5740,
      "ĠST": 5741,
      "idade": 5742,
      "exec": 5743,
      "toCharArray": 5744,
      "Communication": 5745,
      "Ġje": 5746,
      "Ġagent": 5747,
      "Ġ</": 5748,
      "ĠgetNext": 5749,
      "ĠPage": 5750,
      "ĠPdf": 5751,
      "Serial": 5752,
      "getRemote": 5753,
      "Codes": 5754,
      "movie": 5755,
      "owner": 5756,
      "DECODE": 5757,
      "ResourceName": 5758,
      "applet": 5759,
      "Ġ?\");": 5760,
      "ï¿½ï¿½ï¿½": 5761,
      "responseModificationDefinition": 5762,
      "Modific": 5763,
      "organize": 5764,
      "tmpDir": 5765,
      "Ġunit": 5766,
      "aled": 5767,
      "Connector": 5768,
      "Ġtimeout": 5769,
      "Ġaccount": 5770,
      "rency": 5771,
      "Ġoccured": 5772,
      "ĠbufferedReader": 5773,
      "++++++++": 5774,
      "invType": 5775,
      "Finished": 5776,
      "Organize": 5777,
      "DasEmpresasAbertas": 5778,
      "addRequestProperty": 5779,
      "68": 5780,
      ">\"))": 5781,
      "Cal": 5782,
      "Click": 5783,
      "GRA": 5784,
      "Plan": 5785,
      "pisode": 5786,
      "sl": 5787,
      "une": 5788,
      "xpath": 5789,
      "Ġput": 5790,
      "ĠProperty": 5791,
      "ĠEvent": 5792,
      "Ġquan": 5793,
      "Ġlistener": 5794,
      "reen": 5795,
      "Ġil": 5796,
      "Ġ\"{": 5797,
      "Ġnb": 5798,
      "Ġsorted": 5799,
      "Ġdown": 5800,
      "common": 5801,
      "OutStream": 5802,
      "ĠurlC": 5803,
      "Dia": 5804,
      "Ġ10000": 5805,
      "ordin": 5806,
      "ĠgetMD": 5807,
      "ĠoConn": 5808,
      "Ġselect": 5809,
      "Ġsegment": 5810,
      "Attach": 5811,
      "ĠtempString": 5812,
      "database": 5813,
      "ĠWord": 5814,
      "ĠObjectId": 5815,
      "SystemId": 5816,
      "composition": 5817,
      "Ġosw": 5818,
      "parameter": 5819,
      "RootEditPart": 5820,
      "ĠlastModified": 5821,
      "Ġcomment": 5822,
      "PASSWORD": 5823,
      "Ġfza": 5824,
      "nexo": 5825,
      "rediction": 5826,
      "Digit": 5827,
      "Ġoccurred": 5828,
      "CampoDoArquivoDasEmpresasAbertas": 5829,
      "34": 5830,
      "::": 5831,
      "CK": 5832,
      "Driver": 5833,
      "Fichier": 5834,
      "ITE": 5835,
      "RC": 5836,
      "foo": 5837,
      "ira": 5838,
      "pm": 5839,
      "year": 5840,
      "Ġappend": 5841,
      "ĠUpdate": 5842,
      "ĠRead": 5843,
      "Ġapplication": 5844,
      "ĠUpload": 5845,
      "nemy": 5846,
      "getSt": 5847,
      "getURI": 5848,
      "getProject": 5849,
      "alf": 5850,
      "lap": 5851,
      "Ġreceived": 5852,
      "setMax": 5853,
      "Ġthread": 5854,
      "idx": 5855,
      "Ġretry": 5856,
      "Proc": 5857,
      "ĠfileTo": 5858,
      "\\\">\\": 5859,
      "ĠlogFile": 5860,
      "ĠgetResponse": 5861,
      "ĠAudio": 5862,
      "ĠText": 5863,
      "ĠJButton": 5864,
      "irm": 5865,
      "forge": 5866,
      "Mozilla": 5867,
      "Ġcopying": 5868,
      "Ġ\"/\";": 5869,
      "getAc": 5870,
      "ĠWindow": 5871,
      "Ġattr": 5872,
      "NEG": 5873,
      "Ġnodelist": 5874,
      "ĠRecord": 5875,
      "Ġlib": 5876,
      "ĠProxy": 5877,
      "8080": 5878,
      "TRAN": 5879,
      "--------------------------------": 5880,
      "maryKey": 5881,
      "Comment": 5882,
      "services": 5883,
      "ĠpilotData": 5884,
      "Creating": 5885,
      "Ġattributes": 5886,
      "Ġquote": 5887,
      "Ġcreating": 5888,
      "ĠMultipartEntity": 5889,
      "GC": 5890,
      "GO": 5891,
      "GUID": 5892,
      "Sm": 5893,
      "bar": 5894,
      "case": 5895,
      "jdbc": 5896,
      "kit": 5897,
      "nam": 5898,
      "pto": 5899,
      "sun": 5900,
      "ĠType": 5901,
      "Ġright": 5902,
      "install": 5903,
      "stable": 5904,
      "Ġcbuf": 5905,
      "orter": 5906,
      "adget": 5907,
      "Contig": 5908,
      "aged": 5909,
      "Ġtrying": 5910,
      "Ġurlcon": 5911,
      "ĠBo": 5912,
      "Ġws": 5913,
      "Ġwindow": 5914,
      "TypeName": 5915,
      "stanti": 5916,
      "ĠPort": 5917,
      "ĠFloat": 5918,
      "ĠFido": 5919,
      "nextLine": 5920,
      "Ġpayment": 5921,
      "copyLarge": 5922,
      "ĠtmpMailSetting": 5923,
      "Ġ30": 5924,
      "PROD": 5925,
      "statusCode": 5926,
      "ĠProgram": 5927,
      "administrator": 5928,
      "plaintext": 5929,
      "Prev": 5930,
      "ĠencodeFileToFile": 5931,
      "ĠNullPointerException": 5932,
      "Limit": 5933,
      "STRING": 5934,
      "limiter": 5935,
      "ĠdecodeFileToFile": 5936,
      "Deployment": 5937,
      "ĠDriverManager": 5938,
      "presentation": 5939,
      "77": 5940,
      "AST": 5941,
      "CN": 5942,
      "HR": 5943,
      "NAT": 5944,
      "Player": 5945,
      "aa": 5946,
      "ales": 5947,
      "cnt": 5948,
      "call": 5949,
      "ian": 5950,
      "rdf": 5951,
      "ering": 5952,
      "getProperties": 5953,
      "getAddress": 5954,
      "(\"--": 5955,
      "Exist": 5956,
      "derer": 5957,
      "Reason": 5958,
      "setTitle": 5959,
      "ĠDescription": 5960,
      "ufact": 5961,
      "Ġmf": 5962,
      "Ġoutstream": 5963,
      "ĠBookKeepr": 5964,
      "riteria": 5965,
      "Ġrandom": 5966,
      "ĠPerson": 5967,
      "Ġ'%": 5968,
      "UserInteraction": 5969,
      "Adaptor": 5970,
      "Sources": 5971,
      "baseDir": 5972,
      "Annot": 5973,
      "umni": 5974,
      "Ġloaded": 5975,
      "Items": 5976,
      "Ġunzip": 5977,
      "checked": 5978,
      "FILENAME": 5979,
      "Ġlig": 5980,
      "ynchrn": 5981,
      "Ġwrong": 5982,
      "Ġprintln": 5983,
      "tokenizer": 5984,
      "Registros": 5985,
      "BOLSA": 5986,
      "Roles": 5987,
      "ĠAdap": 5988,
      "Ġusuario": 5989,
      "ĠpackageName": 5990,
      "Ġplaintext": 5991,
      "ĠplainText": 5992,
      "Memory": 5993,
      "AllowUserInteraction": 5994,
      "Structure": 5995,
      "ĠImport": 5996,
      "AIN": 5997,
      "Book": 5998,
      "Css": 5999,
      "Dst": 6000,
      "Eff": 6001,
      "Fix": 6002,
      "LINE": 6003,
      "Runtime": 6004,
      "YP": 6005,
      "bb": 6006,
      "mimeType": 6007,
      "publish": 6008,
      "signature": 6009,
      "ĠResult": 6010,
      "getNum": 6011,
      "Ġtransaction": 6012,
      "anization": 6013,
      "Received": 6014,
      "Recipient": 6015,
      "setDescription": 6016,
      "ĠoutC": 6017,
      "serve": 6018,
      "Ġhr": 6019,
      "ĠgetURL": 6020,
      "ĠgetRandom": 6021,
      "ught": 6022,
      "parser": 6023,
      "--)": 6024,
      "ClientProtocolException": 6025,
      "chem": 6026,
      "..\",": 6027,
      "ĠhttpPost": 6028,
      "ResourceSet": 6029,
      "-----": 6030,
      "://\"))": 6031,
      "outputDir": 6032,
      "PONSE": 6033,
      "SIG": 6034,
      "ĠnodeID": 6035,
      "anceled": 6036,
      "savepoint": 6037,
      "layout": 6038,
      "Ġargument": 6039,
      "ĠHtml": 6040,
      "configuration": 6041,
      "Ġoffer": 6042,
      "sendError": 6043,
      "ĠSearch": 6044,
      "ollback": 6045,
      "getOptionValue": 6046,
      "periment": 6047,
      "SCHEMA": 6048,
      "lapsed": 6049,
      "CI": 6050,
      "EM": 6051,
      "Geo": 6052,
      "Imagen": 6053,
      "Pla": 6054,
      "Rule": 6055,
      "Rpc": 6056,
      "Sci": 6057,
      "cis": 6058,
      "hb": 6059,
      "lf": 6060,
      "ns": 6061,
      "sf": 6062,
      "zer": 6063,
      "uta": 6064,
      "utable": 6065,
      "Ġcrypt": 6066,
      "Ġcrossref": 6067,
      "getConfig": 6068,
      "cei": 6069,
      "()[": 6070,
      "Ġphoto": 6071,
      "Ingredients": 6072,
      "Ġreg": 6073,
      "Ġinformation": 6074,
      "ĠStringEntity": 6075,
      "setAllowUserInteraction": 6076,
      "()...\",": 6077,
      "ĠvTIPO": 6078,
      "Ġwritten": 6079,
      "\\\"/>\\": 6080,
      "sourceforge": 6081,
      "Ġok": 6082,
      "Ġrange": 6083,
      "INST": 6084,
      "Ġldst": 6085,
      "ParserConfigurationException": 6086,
      "parseLong": 6087,
      "FromFile": 6088,
      "URISyntaxException": 6089,
      "acao": 6090,
      "import": 6091,
      "ĠmyRand": 6092,
      "getTrain": 6093,
      "Ġspf": 6094,
      "ĠmsgDigest": 6095,
      "Worker": 6096,
      "Ġportal": 6097,
      "Validator": 6098,
      "Ġswapped": 6099,
      "Ġitems": 6100,
      "tationException": 6101,
      "Decla": 6102,
      "CRYP": 6103,
      "Created": 6104,
      "AVA": 6105,
      "Tracker": 6106,
      "setTimestamp": 6107,
      "Ġfeed": 6108,
      "uboru": 6109,
      "CONNECT": 6110,
      "BuildingTime": 6111,
      "ĠFileCopyException": 6112,
      "tidadeDe": 6113,
      "EVENT": 6114,
      "ĠAdaptationException": 6115,
      ".\\": 6116,
      "512": 6117,
      "CUR": 6118,
      "FROM": 6119,
      "JAVA": 6120,
      "builder": 6121,
      "free": 6122,
      "month": 6123,
      "sync": 6124,
      "ules": 6125,
      "}\");": 6126,
      "level": 6127,
      "getEntry": 6128,
      "getOutput": 6129,
      "ories": 6130,
      "FileUtils": 6131,
      "FileFilter": 6132,
      "latest": 6133,
      "Ġpat": 6134,
      "Ġrep": 6135,
      "Ġinvalid": 6136,
      "isLog": 6137,
      "cover": 6138,
      "printf": 6139,
      "ĠfileSize": 6140,
      "dig": 6141,
      "Ġexec": 6142,
      "Ġao": 6143,
      "Args": 6144,
      "ugador": 6145,
      "Ġrset": 6146,
      "ĠMessagingException": 6147,
      "ersTo": 6148,
      "Ġ':": 6149,
      "LES": 6150,
      "Ġgot": 6151,
      "Ġgive": 6152,
      "COR": 6153,
      "Ġpsmt": 6154,
      "Ġparsing": 6155,
      "Ġtemporary": 6156,
      "blema": 6157,
      "ĠVersion": 6158,
      "valueBeforeMD": 6159,
      "TEST": 6160,
      "TEMP": 6161,
      "component": 6162,
      "getPerson": 6163,
      "ustManager": 6164,
      "FTPClient": 6165,
      "Ġbean": 6166,
      "ĠOAIException": 6167,
      "gui": 6168,
      "miss": 6169,
      "ĠDateFormat": 6170,
      "ATED": 6171,
      "ĠimpBP": 6172,
      "Applet": 6173,
      "orderLayout": 6174,
      "lobals": 6175,
      "catalog": 6176,
      "Reference": 6177,
      "ĠActionListener": 6178,
      "tidad": 6179,
      "Relationship": 6180,
      "Persons": 6181,
      "releaseConnection": 6182,
      "light": 6183,
      "getRowDimension": 6184,
      "ĠTemp": 6185,
      "CommunicationException": 6186,
      "39": 6187,
      "45": 6188,
      "?\");": 6189,
      "Dms": 6190,
      "FC": 6191,
      "IL": 6192,
      "Month": 6193,
      "Other": 6194,
      "Pub": 6195,
      "Sha": 6196,
      "Transform": 6197,
      "bility": 6198,
      "fil": 6199,
      "gre": 6200,
      "rad": 6201,
      "swer": 6202,
      "Ġlo": 6203,
      "ĠopenConnection": 6204,
      "requ": 6205,
      "ertion": 6206,
      "Ġclosing": 6207,
      "Ġpack": 6208,
      "Research": 6209,
      "ĠStringBody": 6210,
      "Cons": 6211,
      "Ġdms": 6212,
      "agem": 6213,
      "Ġstn": 6214,
      "Cour": 6215,
      "Divide": 6216,
      "addParameter": 6217,
      "ected": 6218,
      "ĠgetParameter": 6219,
      "Ġcommunity": 6220,
      "ĠHttpsURLConnection": 6221,
      "cesssrc": 6222,
      "ĠJPanel": 6223,
      "ores": 6224,
      "Ġdom": 6225,
      "ĠdoGet": 6226,
      "ĠCluster": 6227,
      "refresh": 6228,
      "There": 6229,
      "rollPane": 6230,
      "ORY": 6231,
      "Ġmove": 6232,
      "ById": 6233,
      "MAIN": 6234,
      "marc": 6235,
      "ConnectException": 6236,
      "ĠThrowable": 6237,
      "updstr": 6238,
      "setBoolean": 6239,
      "JavaProject": 6240,
      "getRootElement": 6241,
      "varname": 6242,
      "ĠQName": 6243,
      "offset": 6244,
      "AVAIL": 6245,
      "Ġspecified": 6246,
      "ĠmenuMgr": 6247,
      "ĠsalidaOWL": 6248,
      "Ġrisp": 6249,
      "ĠDataSourceException": 6250,
      "ProductivityRequirementDtos": 6251,
      "EMPTY": 6252,
      "31": 6253,
      "37": 6254,
      ":\")": 6255,
      "Car": 6256,
      "IZE": 6257,
      "Op": 6258,
      "Public": 6259,
      "]+": 6260,
      "fi": 6261,
      "gIO": 6262,
      "gtools": 6263,
      "oring": 6264,
      "vals": 6265,
      "xB": 6266,
      "etal": 6267,
      "getVariable": 6268,
      "newLine": 6269,
      "Ġter": 6270,
      "role": 6271,
      "Ġblock": 6272,
      "Ġsm": 6273,
      "licant": 6274,
      "Ġmid": 6275,
      "Ġmem": 6276,
      "identity": 6277,
      "ĠretVal": 6278,
      "ĠBlueprint": 6279,
      "media": 6280,
      "unchecked": 6281,
      "utes": 6282,
      "names": 6283,
      "Ġformparams": 6284,
      "ĠINT": 6285,
      "icial": 6286,
      "LEFT": 6287,
      "Ġchain": 6288,
      "Attemp": 6289,
      "Codec": 6290,
      "leton": 6291,
      "ĠRet": 6292,
      "ĠhttpUrl": 6293,
      "httpConn": 6294,
      "ĠLI": 6295,
      "STATE": 6296,
      "zipFile": 6297,
      "ĠcreateRecipe": 6298,
      "AcgIO": 6299,
      "ĠOpen": 6300,
      "ĠanFinal": 6301,
      "Percent": 6302,
      "ĠrowsTo": 6303,
      "Ġcolor": 6304,
      "Ġacgtools": 6305,
      "ĠResourcePool": 6306,
      "AccessException": 6307,
      "storeFile": 6308,
      "Ġcookies": 6309,
      "Ġ\"?\"": 6310,
      "awt": 6311,
      "Compressed": 6312,
      "SignatureFacet": 6313,
      "Ġmarker": 6314,
      "Queue": 6315,
      "SecureRand": 6316,
      "Ġanother": 6317,
      "ĠquantidadeDe": 6318,
      "getVariableContainer": 6319,
      "ĠrowsToAdd": 6320,
      "FAIL": 6321,
      "RIP": 6322,
      "Sheet": 6323,
      "Where": 6324,
      "YES": 6325,
      "[\"": 6326,
      "cgi": 6327,
      "pk": 6328,
      "pattern": 6329,
      "xls": 6330,
      "Ã©": 6331,
      "ĠOR": 6332,
      "ĠUnit": 6333,
      "Ġcnt": 6334,
      "section": 6335,
      "Ġ\"################################": 6336,
      "alWord": 6337,
      "Ġpr": 6338,
      "Ġpoint": 6339,
      "ang": 6340,
      "desc": 6341,
      "ched": 6342,
      "Reverse": 6343,
      "Ġbi": 6344,
      "Ġsax": 6345,
      "setIcon": 6346,
      "ctx": 6347,
      "exclude": 6348,
      "Common": 6349,
      "Ġwar": 6350,
      "logging": 6351,
      "readable": 6352,
      "Ġhigh": 6353,
      "ĠfileInputStream": 6354,
      "vec": 6355,
      "verbose": 6356,
      "Arrays": 6357,
      "ticle": 6358,
      "ĠgetHash": 6359,
      "Ġowner": 6360,
      "Identifier": 6361,
      "ĠAS": 6362,
      "ĠAss": 6363,
      "Timestamp": 6364,
      "ĠhttpConnection": 6365,
      "Ġarch": 6366,
      "Ġdatafield": 6367,
      "irth": 6368,
      "ResourceBundle": 6369,
      "flater": 6370,
      "Ġhashed": 6371,
      "tividade": 6372,
      "ĠfilenameData": 6373,
      "NODE": 6374,
      "Ġmyurl": 6375,
      "ĠmySecureRand": 6376,
      "Ġxmlquery": 6377,
      "ĠCommand": 6378,
      "Downloading": 6379,
      "Origin": 6380,
      "ĠprogressMonitor": 6381,
      "Loaded": 6382,
      "lta": 6383,
      "HOME": 6384,
      "SAXParser": 6385,
      "ĠDigest": 6386,
      "LDER": 6387,
      "EditPartFactory": 6388,
      "ĠRandomAccessFile": 6389,
      "RelationalWord": 6390,
      "ĠTimestamp": 6391,
      "ĠKeyStore": 6392,
      "addedTable": 6393,
      "getErrorStream": 6394,
      "deletedTable": 6395,
      "Capital": 6396,
      "ComboBox": 6397,
      "CLASS": 6398,
      "DOWNLOAD": 6399,
      "MARC": 6400,
      "ufacturing": 6401,
      "ĠcreateRecipeIngredients": 6402,
      "'s": 6403,
      "'\");": 6404,
      "):": 6405,
      ".+": 6406,
      "08": 6407,
      "456": 6408,
      ":\"))": 6409,
      "Amount": 6410,
      "CP": 6411,
      "DT": 6412,
      "Game": 6413,
      "Handle": 6414,
      "IE": 6415,
      "Ip": 6416,
      "OAIException": 6417,
      "Vendor": 6418,
      "_\",": 6419,
      "bout": 6420,
      "cer": 6421,
      "eloc": 6422,
      "function": 6423,
      "jav": 6424,
      "sFile": 6425,
      "sys": 6426,
      "wing": 6427,
      "was": 6428,
      "only": 6429,
      "getVersion": 6430,
      "getServletContext": 6431,
      "Ġtransform": 6432,
      "lable": 6433,
      "Information": 6434,
      "StreamWriter": 6435,
      "develBuild": 6436,
      "rie": 6437,
      "outStream": 6438,
      "Ġsuffix": 6439,
      "urlc": 6440,
      "isSet": 6441,
      "ĠfileIn": 6442,
      "ĠMO": 6443,
      "extract": 6444,
      "osta": 6445,
      "ĠGadget": 6446,
      "force": 6447,
      "Movie": 6448,
      "Ġalign": 6449,
      "imen": 6450,
      "posal": 6451,
      "grade": 6452,
      "(\"/\"": 6453,
      "outputstream": 6454,
      "ĠjarEntry": 6455,
      "views": 6456,
      "Processing": 6457,
      "PROXY": 6458,
      "bean": 6459,
      "Numbers": 6460,
      "Ġhostname": 6461,
      "Origen": 6462,
      "audit": 6463,
      "API": 6464,
      "Valor": 6465,
      "ĠStreamSource": 6466,
      "ĠDatabaseManager": 6467,
      "Matches": 6468,
      "Creator": 6469,
      "Expression": 6470,
      "Ġinitialize": 6471,
      "Souboru": 6472,
      "getSimpleElementText": 6473,
      "asper": 6474,
      "stablebuild": 6475,
      "ĠBookKeeprCommunicationException": 6476,
      "Ġligne": 6477,
      "ceiver": 6478,
      "elocity": 6479,
      "/?": 6480,
      "44": 6481,
      "Cor": 6482,
      "FORM": 6483,
      "MLE": 6484,
      "Prediction": 6485,
      "VALUES": 6486,
      "WRI": 6487,
      "]\");": 6488,
      "blueprint": 6489,
      "gable": 6490,
      "luc": 6491,
      "sid": 6492,
      "Ġ,": 6493,
      "inc": 6494,
      "tie": 6495,
      "Ġcx": 6496,
      "Ġcategory": 6497,
      "atna": 6498,
      "encrypt": 6499,
      "Ġtv": 6500,
      "(\"***": 6501,
      "Ġfl": 6502,
      "Into": 6503,
      "Ġrename": 6504,
      "Req": 6505,
      "Ġsa": 6506,
      "Ġdig": 6507,
      "Ġthumb": 6508,
      "Ġmail": 6509,
      "Ġconver": 6510,
      "ĠBorderLayout": 6511,
      "Enc": 6512,
      "HttpRequest": 6513,
      "Ġcommit": 6514,
      "loadClass": 6515,
      "Ġrate": 6516,
      "Ġrule": 6517,
      "ContentType": 6518,
      "Ġ'\\": 6519,
      "ĠTransaction": 6520,
      "Ġchooser": 6521,
      "ĠreadLength": 6522,
      "ATT": 6523,
      "Ġ:=": 6524,
      "METH": 6525,
      "subTask": 6526,
      "DirName": 6527,
      "httpget": 6528,
      "ĠinputChannel": 6529,
      "ĠGroup": 6530,
      "ĠGestor": 6531,
      "ĠuserName": 6532,
      "ĠerrorSQL": 6533,
      "Ġzipinputstream": 6534,
      "PEL": 6535,
      "Ġdbf": 6536,
      "Groups": 6537,
      "ĠXFile": 6538,
      "links": 6539,
      "Ġcompress": 6540,
      "Desc": 6541,
      "viders": 6542,
      "FailedException": 6543,
      "getTclass": 6544,
      "Ġlicense": 6545,
      "Ġconnector": 6546,
      "ĠProductivity": 6547,
      "going": 6548,
      "finest": 6549,
      "Cached": 6550,
      "Secret": 6551,
      "Callback": 6552,
      "DatabaseException": 6553,
      "Ġ\"_\"": 6554,
      "DOMUtil": 6555,
      "ExcludeLinksWithin": 6556,
      "ExcludeComplete": 6557,
      "Ġ'/')": 6558,
      "getDocumentElement": 6559,
      "ConexionBD": 6560,
      "Ġontologia": 6561,
      "ĠbigInt": 6562,
      "Ġagain": 6563,
      "DmsRelationalWord": 6564,
      "Researching": 6565,
      "ĠquantidadeDeRegistros": 6566,
      "-\"": 6567,
      ">'": 6568,
      "END": 6569,
      "Multipart": 6570,
      "OIN": 6571,
      "Sor": 6572,
      "Tar": 6573,
      "UB": 6574,
      "Using": 6575,
      "ito": 6576,
      "lbr": 6577,
      "norm": 6578,
      "option": 6579,
      "pid": 6580,
      "pstmt": 6581,
      "tree": 6582,
      "||": 6583,
      "ĠNameValuePair": 6584,
      "team": 6585,
      "student": 6586,
      "Ġ(?,": 6587,
      "getL": 6588,
      "getID": 6589,
      "Install": 6590,
      "lignment": 6591,
      "Ġrequired": 6592,
      "del": 6593,
      "Ġinser": 6594,
      "Ġsyn": 6595,
      "Ġsupport": 6596,
      "Ġsheet": 6597,
      "Ġconexao": 6598,
      "Ġclasses": 6599,
      "istor": 6600,
      "perm": 6601,
      "Ġjb": 6602,
      "Ġjframe": 6603,
      "Ġwhich": 6604,
      "foaf": 6605,
      "elula": 6606,
      "getReal": 6607,
      "ĠdestOutFile": 6608,
      "Times": 6609,
      "Note": 6610,
      "REPORT": 6611,
      "Units": 6612,
      "ĠnameArray": 6613,
      "ĠuserAgent": 6614,
      "ZipFile": 6615,
      "ALSE": 6616,
      "ĠVARCHAR": 6617,
      "OutputFile": 6618,
      "FromURL": 6619,
      "Ġmessages": 6620,
      "Launch": 6621,
      "getPackage": 6622,
      "ĠcurrentColumn": 6623,
      "ĠFTPFile": 6624,
      "DIG": 6625,
      "Ġtypes": 6626,
      "Ġrunning": 6627,
      "SCRIP": 6628,
      "ĠDBConnection": 6629,
      "MIME": 6630,
      "mitter": 6631,
      "ĠAdd": 6632,
      "ducer": 6633,
      "ĠAuthentication": 6634,
      "================================": 6635,
      "plainText": 6636,
      "Extract": 6637,
      "iven": 6638,
      "progressMonitor": 6639,
      "ĠprepStmt": 6640,
      "ĠTools": 6641,
      "Ġgzin": 6642,
      "getTestTool": 6643,
      "lecule": 6644,
      "NATURE": 6645,
      "Ġ':');": 6646,
      "8192": 6647,
      "<>'": 6648,
      "Blank": 6649,
      "Ed": 6650,
      "Iter": 6651,
      "Old": 6652,
      "Ontology": 6653,
      "Try": 6654,
      "Zoom": 6655,
      "after": 6656,
      "bprocess": 6657,
      "csv": 6658,
      "ek": 6659,
      "transaction": 6660,
      "track": 6661,
      "vas": 6662,
      "ymo": 6663,
      "ĠCould": 6664,
      "onda": 6665,
      "rest": 6666,
      "realm": 6667,
      "Ġ=\"": 6668,
      "Ġclear": 6669,
      "newSAXParser": 6670,
      "(\":\"": 6671,
      "FileSystem": 6672,
      "ĠfOut": 6673,
      "Ġfname": 6674,
      "putFloat": 6675,
      "arted": 6676,
      "riends": 6677,
      "Ġsign": 6678,
      "Ġscore": 6679,
      "setVariable": 6680,
      "ĠDimen": 6681,
      "istent": 6682,
      "urname": 6683,
      "Direct": 6684,
      "ConnectionException": 6685,
      "diff": 6686,
      "ĠbyteData": 6687,
      "payment": 6688,
      "Ġproc": 6689,
      "Logging": 6690,
      "ĠJOIN": 6691,
      "ĠreadCount": 6692,
      "range": 6693,
      "ĠFont": 6694,
      "Ġsources": 6695,
      "RED": 6696,
      "Ġ256": 6697,
      "ĠNumber": 6698,
      "shell": 6699,
      "InfoDto": 6700,
      "ĠerrorMessage": 6701,
      "getApp": 6702,
      "Ġ\"'\"": 6703,
      "anno": 6704,
      "showError": 6705,
      "ServiceException": 6706,
      "Ġcurrentcoachstr": 6707,
      "tivo": 6708,
      "ointBox": 6709,
      "resultSet": 6710,
      "Ġmyport": 6711,
      "Ġsessionid": 6712,
      "ĠRemote": 6713,
      "ilability": 6714,
      "Ġlibrary": 6715,
      "Ġdescriptor": 6716,
      "Ġpercent": 6717,
      "ĠDatabaseAdapter": 6718,
      "TreeNode": 6719,
      "events": 6720,
      "Windows": 6721,
      "BasicInfoDto": 6722,
      "Ġvarname": 6723,
      "Usage": 6724,
      "join": 6725,
      "Ġ\"\\\"]/": 6726,
      "completePath": 6727,
      "Modificado": 6728,
      "invTypeBasicInfoDto": 6729,
      "ĠFidoDatabaseException": 6730,
      "ĠgetRandomGUID": 6731,
      "ĠldstTO": 6732,
      "isLoggable": 6733,
      "ymous": 6734,
      "ĠDimension": 6735,
      "51": 6736,
      "=\")": 6737,
      "ACTION": 6738,
      "BY": 6739,
      "Cas": 6740,
      "EE": 6741,
      "GE": 6742,
      "NCE": 6743,
      "PRI": 6744,
      "Single": 6745,
      "Tip": 6746,
      "TLE": 6747,
      "YPE": 6748,
      "[(": 6749,
      "bra": 6750,
      "cb": 6751,
      "dp": 6752,
      "lm": 6753,
      "ltmp": 6754,
      "nid": 6755,
      "ndi": 6756,
      "prt": 6757,
      "rd": 6758,
      "socket": 6759,
      "tt": 6760,
      "ulate": 6761,
      "vance": 6762,
      "wrong": 6763,
      "xx": 6764,
      "ĠCopy": 6765,
      "ĠLocal": 6766,
      "ticket": 6767,
      "Ġcd": 6768,
      "ors": 6769,
      "ench": 6770,
      "Ġterm": 6771,
      "alias": 6772,
      "(\"\"": 6773,
      "Ġfoc": 6774,
      "ĠnewUser": 6775,
      "lags": 6776,
      "Ġpout": 6777,
      "Ġrepository": 6778,
      "chan": 6779,
      "Ġbtn": 6780,
      "setInstance": 6781,
      "setSelected": 6782,
      "Ġdat": 6783,
      "isA": 6784,
      "Ġmac": 6785,
      "exist": 6786,
      "Prod": 6787,
      "Encrypted": 6788,
      "adding": 6789,
      "Factor": 6790,
      "Ġeno": 6791,
      "Ġreaded": 6792,
      "Ġgame": 6793,
      "TextView": 6794,
      "ĠNot": 6795,
      "copyStream": 6796,
      "ART": 6797,
      "ĠoutputDir": 6798,
      "shutdown": 6799,
      "Hashtable": 6800,
      "SSdf": 6801,
      "getContentPane": 6802,
      "Ġzipout": 6803,
      "Hostname": 6804,
      "getCause": 6805,
      "ĠimageName": 6806,
      "getResponseBody": 6807,
      "00000": 6808,
      "LIC": 6809,
      "izedMessage": 6810,
      "setContentLength": 6811,
      "ENER": 6812,
      "APPROVE": 6813,
      "Ġexisting": 6814,
      "Ġcursor": 6815,
      "MIT": 6816,
      "General": 6817,
      "('.',": 6818,
      "Ġworking": 6819,
      "getLocalizedMessage": 6820,
      "ĠipAddr": 6821,
      "ploy": 6822,
      "Assign": 6823,
      "('/',": 6824,
      "ĠsystemId": 6825,
      "Administ": 6826,
      "xsl": 6827,
      "Functions": 6828,
      "getColumnDimension": 6829,
      "workingPub": 6830,
      "HEADER": 6831,
      "setInstanceFollowRedirects": 6832,
      "90": 6833,
      "CANCE": 6834,
      "DK": 6835,
      "DY": 6836,
      "Draw": 6837,
      "EAR": 6838,
      "Fl": 6839,
      "IB": 6840,
      "Native": 6841,
      "Oc": 6842,
      "Por": 6843,
      "Principal": 6844,
      "Retri": 6845,
      "lr": 6846,
      "non": 6847,
      "over": 6848,
      "sy": 6849,
      "sted": 6850,
      "sim": 6851,
      "xmlns": 6852,
      "Ġoid": 6853,
      "inha": 6854,
      "regor": 6855,
      "tet": 6856,
      "ilest": 6857,
      "engine": 6858,
      "Ġtrack": 6859,
      "Ġ\"(\"": 6860,
      "Ġfic": 6861,
      "Ġfich": 6862,
      "launch": 6863,
      "Execute": 6864,
      "Ġreset": 6865,
      "Ġrelative": 6866,
      "Ġbp": 6867,
      "setHome": 6868,
      "isTrace": 6869,
      "throw": 6870,
      "Ġmonth": 6871,
      "could": 6872,
      "ily": 6873,
      "unic": 6874,
      "Ġhs": 6875,
      "ĠfileType": 6876,
      "\\\"\");": 6877,
      "Parts": 6878,
      "Ġforward": 6879,
      "Ġois": 6880,
      "Ġrv": 6881,
      "Ġrdf": 6882,
      "ĠMime": 6883,
      "ĠinputSource": 6884,
      "RET": 6885,
      "ĠCache": 6886,
      "ĠIOUtil": 6887,
      "ĠNT": 6888,
      "DEX": 6889,
      "ĠbufferSize": 6890,
      "Tables": 6891,
      "Ġ?\";": 6892,
      "StrBuff": 6893,
      "finalState": 6894,
      "minus": 6895,
      "CENSE": 6896,
      "ĠserverURL": 6897,
      "Ġimages": 6898,
      "NONE": 6899,
      "Ġunreadable": 6900,
      "())).": 6901,
      "targetDirectory": 6902,
      "Ġtidy": 6903,
      "ĠdocBuilder": 6904,
      "DAV": 6905,
      "Connecting": 6906,
      "resourceName": 6907,
      "INFORM": 6908,
      "Ġbinary": 6909,
      "Ġcollection": 6910,
      "getAttributeByName": 6911,
      "Ġsaved": 6912,
      "EXT": 6913,
      "Observer": 6914,
      "getUserId": 6915,
      "Ġobjects": 6916,
      "ĠexiEventList": 6917,
      "Characters": 6918,
      "Ġentrada": 6919,
      "children": 6920,
      "ĠClientProtocolException": 6921,
      "ĠSecretKey": 6922,
      "ĠMappedByteBuffer": 6923,
      "ĠFILE": 6924,
      "giveRsrcIdx": 6925,
      "velope": 6926,
      "EXIEvent": 6927,
      "REGIST": 6928,
      "Ġoos": 6929,
      "ianCalendar": 6930,
      "Effect": 6931,
      "Ġenough": 6932,
      "CANCEL": 6933,
      "regorianCalendar": 6934,
      "isTraceEnabled": 6935,
      "unicip": 6936,
      "INFORMATION": 6937,
      "!!\");": 6938,
      "Au": 6939,
      "Dos": 6940,
      "Dao": 6941,
      "ELD": 6942,
      "Global": 6943,
      "OL": 6944,
      "OU": 6945,
      "Sco": 6946,
      "Sign": 6947,
      "Timer": 6948,
      "UNT": 6949,
      "]))": 6950,
      "bos": 6951,
      "evalu": 6952,
      "fname": 6953,
      "gg": 6954,
      "ose": 6955,
      "pwd": 6956,
      "yahoo": 6957,
      "Ð°": 6958,
      "Ġue": 6959,
      "Ġapi": 6960,
      "relation": 6961,
      "remaining": 6962,
      "lef": 6963,
      "Stop": 6964,
      "neo": 6965,
      "Ġct": 6966,
      "getLog": 6967,
      "(\"'": 6968,
      "(\";": 6969,
      "Ġplay": 6970,
      "Ġnetwork": 6971,
      "Ġinst": 6972,
      "Ġsi": 6973,
      "Ġsz": 6974,
      "Ġslave": 6975,
      "rypto": 6976,
      "uevo": 6977,
      "setSize": 6978,
      "ĠDj": 6979,
      "isplay": 6980,
      "Ġmetadata": 6981,
      "ĠBundle": 6982,
      "Chart": 6983,
      "ĠfileUrl": 6984,
      "izar": 6985,
      "Ġjf": 6986,
      "fileTo": 6987,
      "pac": 6988,
      "ĠHttpHost": 6989,
      "Ġdestfile": 6990,
      "ĠTInt": 6991,
      "Ġgps": 6992,
      "leting": 6993,
      "vided": 6994,
      "timestamp": 6995,
      "ĠhttpGet": 6996,
      "UserName": 6997,
      "ĠCustom": 6998,
      "gsoft": 6999,
      "Added": 7000,
      "Seed": 7001,
      "ĠoutputChannel": 7002,
      "ConfigElements": 7003,
      "NumberReader": 7004,
      "ĠzipInputStream": 7005,
      "active": 7006,
      "setDouble": 7007,
      "Ġbefore": 7008,
      "Ġchars": 7009,
      "comment": 7010,
      "atures": 7011,
      "Ġ\"&\";": 7012,
      "LIENT": 7013,
      "ĠUtili": 7014,
      "Ġonly": 7015,
      "Ġaccept": 7016,
      "ĠJarInputStream": 7017,
      "LOGGER": 7018,
      "points": 7019,
      "Templates": 7020,
      "redential": 7021,
      "passwd": 7022,
      "Ġvalidate": 7023,
      "Phrase": 7024,
      "License": 7025,
      "contact": 7026,
      "123456": 7027,
      "Catalog": 7028,
      "getVlr": 7029,
      "Alive": 7030,
      "ĠLineNumberReader": 7031,
      "retrieveFile": 7032,
      "servation": 7033,
      "requency": 7034,
      "etalh": 7035,
      "workingPubConfigElements": 7036,
      "workingPubConfigElementsHash": 7037,
      "&&": 7038,
      "46": 7039,
      "=(": 7040,
      "@@": 7041,
      "AA": 7042,
      "Aware": 7043,
      "BE": 7044,
      "BS": 7045,
      "Cn": 7046,
      "Credentials": 7047,
      "Electron": 7048,
      "Free": 7049,
      "Go": 7050,
      "Kit": 7051,
      "Nuevo": 7052,
      "OST": 7053,
      "RS": 7054,
      "Scheme": 7055,
      "WW": 7056,
      "Weight": 7057,
      "az": 7058,
      "cao": 7059,
      "gri": 7060,
      "graph": 7061,
      "jecut": 7062,
      "sms": 7063,
      "ĠProgress": 7064,
      "Ġ{}\",": 7065,
      "Ġcert": 7066,
      "getJ": 7067,
      "cel": 7068,
      "Ġtrace": 7069,
      "ural": 7070,
      "align": 7071,
      "StringUtil": 7072,
      "roker": 7073,
      "Ġfb": 7074,
      "Ġpop": 7075,
      "Ġeditor": 7076,
      "chy": 7077,
      "ritable": 7078,
      "Ġsu": 7079,
      "Ġsenha": 7080,
      "Ġsoftware": 7081,
      "sets": 7082,
      "setObject": 7083,
      "isClosed": 7084,
      "Ġmay": 7085,
      "Ġstack": 7086,
      "Ġstored": 7087,
      "ckpos": 7088,
      "Ġword": 7089,
      "Diagram": 7090,
      "uplic": 7091,
      "unable": 7092,
      "istream": 7093,
      "lname": 7094,
      "Parsing": 7095,
      "Encryption": 7096,
      "perator": 7097,
      "Arti": 7098,
      "ĠgetData": 7099,
      "++]": 7100,
      "ĠPoint": 7101,
      "ĠPersistence": 7102,
      "ersist": 7103,
      "Ġ:\"": 7104,
      "nextInt": 7105,
      "destDir": 7106,
      "ĠtempDir": 7107,
      "shif": 7108,
      "ĠBytes": 7109,
      "XMLHandler": 7110,
      "CTR": 7111,
      "ĠObjects": 7112,
      "account": 7113,
      "Ġbest": 7114,
      "NOWN": 7115,
      "materialDtos": 7116,
      "parameters": 7117,
      "ĠnumWritten": 7118,
      "Ġyear": 7119,
      "getTotal": 7120,
      "Docroot": 7121,
      "TimeoutException": 7122,
      "Ġuploadresponse": 7123,
      "ĠBasicProcessor": 7124,
      "Ġmapped": 7125,
      "ĠResources": 7126,
      "ĠSAXBuilder": 7127,
      "unknown": 7128,
      "ĠLinkName": 7129,
      "Authorized": 7130,
      "registro": 7131,
      "PAPEL": 7132,
      "Ġjsonstring": 7133,
      "Ġmanager": 7134,
      "Vars": 7135,
      "booleanValue": 7136,
      "Ġfnfe": 7137,
      "Println": 7138,
      "Ġphone": 7139,
      "OCIO": 7140,
      "ĠEXI": 7141,
      "Pilot": 7142,
      "ĠobtainUserReputationRequest": 7143,
      "consumeContent": 7144,
      "ĠAPIResponse": 7145,
      "alfbyte": 7146,
      "NEGOCIO": 7147,
      "METHOD": 7148,
      "(\":\".": 7149,
      "'))": 7150,
      "400": 7151,
      "ACT": 7152,
      "AND": 7153,
      "FIN": 7154,
      "GPS": 7155,
      "LM": 7156,
      "Year": 7157,
      "aException": 7158,
      "cd": 7159,
      "fect": 7160,
      "jdom": 7161,
      "lator": 7162,
      "mon": 7163,
      "mid": 7164,
      "mbo": 7165,
      "nonce": 7166,
      "written": 7167,
      "yload": 7168,
      "æĸ": 7169,
      "ĠÐ": 7170,
      "Ġger": 7171,
      "ĠUnable": 7172,
      "Ġlock": 7173,
      "Ġï¿½ï¿½ï¿½ï¿½": 7174,
      "Ġqual": 7175,
      "amily": 7176,
      "getStart": 7177,
      "atok": 7178,
      "orneo": 7179,
      "alle": 7180,
      "Ġnews": 7181,
      "ĠpStmt": 7182,
      "Ġnormal": 7183,
      "live": 7184,
      "library": 7185,
      "Relative": 7186,
      "outputStream": 7187,
      "lica": 7188,
      "setId": 7189,
      "Ġday": 7190,
      "isC": 7191,
      "isc": 7192,
      "Ġmes": 7193,
      "Ġmore": 7194,
      "Ġmalformed": 7195,
      "rows": 7196,
      "rag": 7197,
      "Ġurlstr": 7198,
      "Division": 7199,
      "ascript": 7200,
      "conds": 7201,
      "Prote": 7202,
      "Ġht": 7203,
      "oose": 7204,
      "addAll": 7205,
      "ands": 7206,
      "ĠoMsg": 7207,
      "ĠAbstract": 7208,
      "ĠreadBytes": 7209,
      "Ġseparator": 7210,
      "ĠresultString": 7211,
      "RESS": 7212,
      "Ġnamespace": 7213,
      "ĠNO": 7214,
      "desttillcnt": 7215,
      "ARCH": 7216,
      "NTH": 7217,
      "ĠstrUrl": 7218,
      "=\\\"\");": 7219,
      "Ġ4096": 7220,
      "AXB": 7221,
      "NeededRsrc": 7222,
      "(\"<?": 7223,
      "Ġnotify": 7224,
      "coming": 7225,
      "counter": 7226,
      "Ġattach": 7227,
      "worked": 7228,
      "chars": 7229,
      "ĠbaseURL": 7230,
      "Ġactive": 7231,
      "getRequestURI": 7232,
      "Ġqparams": 7233,
      "Ġpermission": 7234,
      "pose": 7235,
      "BODY": 7236,
      "Ġregister": 7237,
      "Ġleft": 7238,
      "PACE": 7239,
      "ridge": 7240,
      "ĠAuthenticator": 7241,
      "Ġseatstart": 7242,
      "SelectionChanged": 7243,
      "Confirm": 7244,
      "LOCK": 7245,
      "InitPoints": 7246,
      "270": 7247,
      "RESPONSE": 7248,
      "MySQL": 7249,
      "alyzer": 7250,
      "titude": 7251,
      "marshal": 7252,
      "Estim": 7253,
      "Ġlayer": 7254,
      "ĠinstallClass": 7255,
      "CEPTION": 7256,
      "ĠCoreException": 7257,
      "Merc": 7258,
      "Dialect": 7259,
      "stantiationException": 7260,
      "ynchrnServer": 7261,
      "INSTANCE": 7262,
      "getPersonal": 7263,
      "filing": 7264,
      "'\";": 7265,
      "33": 7266,
      "35": 7267,
      "500": 7268,
      ">)": 7269,
      "AF": 7270,
      "Big": 7271,
      "False": 7272,
      "GZIP": 7273,
      "High": 7274,
      "Head": 7275,
      "IV": 7276,
      "JAR": 7277,
      "OAI": 7278,
      "Robot": 7279,
      "Speed": 7280,
      "VM": 7281,
      "bit": 7282,
      "bind": 7283,
      "cannot": 7284,
      "eh": 7285,
      "iers": 7286,
      "plot": 7287,
      "sign": 7288,
      "tm": 7289,
      "try": 7290,
      "ä¸": 7291,
      "è¯": 7292,
      "ets": 7293,
      "Stock": 7294,
      "Ġcertificate": 7295,
      "orio": 7296,
      "StringBuffer": 7297,
      "Ġem": 7298,
      "Ġns": 7299,
      "Ġrel": 7300,
      "Ġrecipe": 7301,
      "Ġbg": 7302,
      "ĠsSQL": 7303,
      "ĠFileSystem": 7304,
      "isAssign": 7305,
      "Ġconformance": 7306,
      "coords": 7307,
      "Ġouts": 7308,
      "Ġoutage": 7309,
      "exc": 7310,
      "expected": 7311,
      "toXML": 7312,
      "Copied": 7313,
      "pened": 7314,
      "Ġvariable": 7315,
      "Chain": 7316,
      "Ġhel": 7317,
      "Ġhead": 7318,
      "Ġfileoutputstream": 7319,
      "iere": 7320,
      "ableFrom": 7321,
      "sourceChannel": 7322,
      "ToProcess": 7323,
      "errorMsg": 7324,
      "ĠIFolder": 7325,
      "ĠMedia": 7326,
      "Ident": 7327,
      "OfPersons": 7328,
      "Decomposition": 7329,
      "ĠAl": 7330,
      "ĠMessages": 7331,
      "Objects": 7332,
      "TimeStamp": 7333,
      "times": 7334,
      "TextArea": 7335,
      "Seq": 7336,
      "SOAP": 7337,
      "hasOption": 7338,
      "ternetAddress": 7339,
      "baseUrl": 7340,
      "getDownload": 7341,
      "Ġpaths": 7342,
      "PEG": 7343,
      "getSub": 7344,
      "Disk": 7345,
      "hostname": 7346,
      "DBC": 7347,
      "ĠdownloadFile": 7348,
      "erences": 7349,
      "Ġ500": 7350,
      "ĠlinkTemporary": 7351,
      "cipients": 7352,
      "Ġprintout": 7353,
      "ĠXMLReader": 7354,
      "getHeaders": 7355,
      "SocketFactory": 7356,
      "Ġsearcher": 7357,
      "Verifier": 7358,
      "ĠbuffReader": 7359,
      "soap": 7360,
      "manage": 7361,
      "anonymous": 7362,
      "Extra": 7363,
      "('/');": 7364,
      "ligne": 7365,
      "getNoOfPersons": 7366,
      "getCodeBase": 7367,
      "ScrollPane": 7368,
      "ĠTranscode": 7369,
      "uku": 7370,
      "TrxName": 7371,
      "aprops": 7372,
      "Converter": 7373,
      "Metrics": 7374,
      "commons": 7375,
      "ĠWindows": 7376,
      "Science": 7377,
      "ĠdmsDocument": 7378,
      "Ġ\"################################################": 7379,
      "prtCn": 7380,
      "CTRUM": 7381,
      "isAssignableFrom": 7382,
      "prtCnst": 7383,
      "26": 7384,
      "5000": 7385,
      "76": 7386,
      "BAD": 7387,
      "Cu": 7388,
      "Emitter": 7389,
      "Ejecut": 7390,
      "Fetch": 7391,
      "Gate": 7392,
      "Got": 7393,
      "LR": 7394,
      "Now": 7395,
      "SR": 7396,
      "bis": 7397,
      "empty": 7398,
      "fetch": 7399,
      "nnws": 7400,
      "pop": 7401,
      "sd": 7402,
      "sq": 7403,
      "sure": 7404,
      "ucket": 7405,
      "ĠContext": 7406,
      "ĠLocale": 7407,
      "ĠCharset": 7408,
      "ince": 7409,
      "Ġ=\");": 7410,
      "getStackTrace": 7411,
      "getMo": 7412,
      "getBase": 7413,
      "getWeb": 7414,
      "Ġtm": 7415,
      "Ġ\"+": 7416,
      "Ġ\"\").": 7417,
      "Ġfollow": 7418,
      "ĠnewProject": 7419,
      "Ġevt": 7420,
      "Ġnf": 7421,
      "chunk": 7422,
      "setRe": 7423,
      "setLength": 7424,
      "setCharacter": 7425,
      "Ġdriver": 7426,
      "Ġmedia": 7427,
      "Ġconcept": 7428,
      "Ġvis": 7429,
      "Chat": 7430,
      "Proj": 7431,
      "quested": 7432,
      "Ġ13": 7433,
      "verify": 7434,
      "HttpsURLConnection": 7435,
      "hospital": 7436,
      "ĠtoHexString": 7437,
      "Ġopt": 7438,
      "Ġother": 7439,
      "Ġrating": 7440,
      "ĠPRO": 7441,
      "executeMethod": 7442,
      "ROW": 7443,
      "classes": 7444,
      "Ġtempp": 7445,
      "ĠdigestBytes": 7446,
      "Ġidentity": 7447,
      "ffected": 7448,
      "amples": 7449,
      "ORG": 7450,
      "Composite": 7451,
      "ĠtmpDir": 7452,
      "Ġfailure": 7453,
      "CTORY": 7454,
      "items": 7455,
      "('\"": 7456,
      "Ġzipfile": 7457,
      "ĠcurrentPilot": 7458,
      "CENT": 7459,
      "Ġanswer": 7460,
      "Checksum": 7461,
      "AndClose": 7462,
      "00000000": 7463,
      "cls": 7464,
      "curr": 7465,
      "Ġfcin": 7466,
      "ĠpostData": 7467,
      "VED": 7468,
      "ĠProduct": 7469,
      "Ġbuilders": 7470,
      "Shell": 7471,
      "ĠprogressBar": 7472,
      "Ġpasswd": 7473,
      "Ġcls": 7474,
      "Ġfirstname": 7475,
      "ĠDatabaseException": 7476,
      "Ġssl": 7477,
      "Ġorigin": 7478,
      "Ġwebxml": 7479,
      "Compression": 7480,
      "ĠneededRsrc": 7481,
      "getNodeName": 7482,
      "Ġverify": 7483,
      "ĠKdu": 7484,
      "Ġquestion": 7485,
      "Datatype": 7486,
      "ExecutionException": 7487,
      "ĠGeneral": 7488,
      "ĠManifest": 7489,
      "FragmentRoot": 7490,
      "getCodigo": 7491,
      "Candid": 7492,
      "CRYPT": 7493,
      "tieLog": 7494,
      "SortieLog": 7495,
      "REGISTRO": 7496,
      "ĠDjatok": 7497,
      "Ejecutando": 7498,
      "41": 7499,
      "49": 7500,
      "CF": 7501,
      "Cert": 7502,
      "Equal": 7503,
      "Fu": 7504,
      "Hint": 7505,
      "ICON": 7506,
      "ISH": 7507,
      "POR": 7508,
      "RM": 7509,
      "Sv": 7510,
      "SPACE": 7511,
      "We": 7512,
      "auto": 7513,
      "flow": 7514,
      "iro": 7515,
      "ky": 7516,
      "rshif": 7517,
      "sm": 7518,
      "Ġroll": 7519,
      "ĠConn": 7520,
      "ĠOutput": 7521,
      "inding": 7522,
      "rep": 7523,
      "erException": 7524,
      "getIs": 7525,
      "encrypted": 7526,
      "Ġ\"*": 7527,
      "(\"?": 7528,
      "roles": 7529,
      "Ġplayer": 7530,
      "Instr": 7531,
      "InMillis": 7532,
      "Ġrelated": 7533,
      "Ġbf": 7534,
      "Ġsys": 7535,
      "Ġsome": 7536,
      "Ġsymbol": 7537,
      "Constraints": 7538,
      "ĠFileUtil": 7539,
      "setPath": 7540,
      "setOutput": 7541,
      "setTools": 7542,
      "isInfo": 7543,
      "Ġmgr": 7544,
      "ĠSni": 7545,
      "Ġstudent": 7546,
      "totype": 7547,
      "itude": 7548,
      "ĠBackup": 7549,
      "pear": 7550,
      "))).": 7551,
      "Ġwait": 7552,
      "asy": 7553,
      "logFile": 7554,
      "logError": 7555,
      "uns": 7556,
      "Ġ15": 7557,
      "till": 7558,
      "ecimal": 7559,
      "ĠgetInputStream": 7560,
      "ĠgetImage": 7561,
      "Ġgetting": 7562,
      "ĠtoFileName": 7563,
      "Ġcore": 7564,
      "++);": 7565,
      "Ġoperation": 7566,
      "ĠrprtCnst": 7567,
      "ĠMeta": 7568,
      "Ġ'.": 7569,
      "ĠInternal": 7570,
      "tempDir": 7571,
      "...\",": 7572,
      "ĠresultCount": 7573,
      "CodeGen": 7574,
      "ĠRsetTools": 7575,
      "httpResponse": 7576,
      "Ġxr": 7577,
      "ĠdoPost": 7578,
      "Unique": 7579,
      "Select": 7580,
      "AttributeInfo": 7581,
      "Collector": 7582,
      "useragent": 7583,
      "ADD": 7584,
      "Overview": 7585,
      "duction": 7586,
      "acion": 7587,
      "Chars": 7588,
      "Disciplina": 7589,
      "ĠmyXMLHandler": 7590,
      "Ġchecksum": 7591,
      "resEntity": 7592,
      "128": 7593,
      "LICENSE": 7594,
      "Ġprestm": 7595,
      "Ġfcout": 7596,
      "ĠJarOutputStream": 7597,
      "ATIONS": 7598,
      "LOGIN": 7599,
      "cenario": 7600,
      "setBusiness": 7601,
      "SocketException": 7602,
      "Ġapplet": 7603,
      "Words": 7604,
      "OperationException": 7605,
      "plus": 7606,
      "ular": 7607,
      "longValue": 7608,
      "xsd": 7609,
      "mpresa": 7610,
      "ĠMainFrame": 7611,
      "getShort": 7612,
      "ometry": 7613,
      "embly": 7614,
      "Ġallowed": 7615,
      "blockSize": 7616,
      "ĠGadgets": 7617,
      "ilestone": 7618,
      "allel": 7619,
      "Fuente": 7620,
      "isInfoEnabled": 7621,
      "ĠSniff": 7622,
      "Audit": 7623,
      "BACK": 7624,
      "CAL": 7625,
      "Detalh": 7626,
      "Gu": 7627,
      "GATE": 7628,
      "Kind": 7629,
      "Malformed": 7630,
      "Salt": 7631,
      "Uuid": 7632,
      "Wh": 7633,
      "You": 7634,
      "bc": 7635,
      "bad": 7636,
      "ebug": 7637,
      "menu": 7638,
      "patch": 7639,
      "push": 7640,
      "sqle": 7641,
      "vari": 7642,
      "xf": 7643,
      "ĠHA": 7644,
      "ĠLocation": 7645,
      "ĠArrayIndexOutOfBoundsException": 7646,
      "initial": 7647,
      "lex": 7648,
      "Ġcredit": 7649,
      "ality": 7650,
      "(\".\");": 7651,
      "FileWriter": 7652,
      "Ġfragment": 7653,
      "Ġfire": 7654,
      "arti": 7655,
      "Ġnom": 7656,
      "Expi": 7657,
      "Required": 7658,
      "Ġinv": 7659,
      "Ġbad": 7660,
      "Ġstep": 7661,
      "thread": 7662,
      "come": 7663,
      "community": 7664,
      "raft": 7665,
      "Cookies": 7666,
      "ĠBrowser": 7667,
      "Chem": 7668,
      "Provent": 7669,
      "ĠfileChooser": 7670,
      "izard": 7671,
      "uted": 7672,
      "Ġexit": 7673,
      "Ġexample": 7674,
      "Ġjs": 7675,
      "esSystemException": 7676,
      "addOption": 7677,
      "ĠgetPassword": 7678,
      "Linea": 7679,
      "001": 7680,
      "ĠId": 7681,
      "ĠIPath": 7682,
      "Ġproblem": 7683,
      "ĠPlatform": 7684,
      "owl": 7685,
      "INTE": 7686,
      "ErrorException": 7687,
      "Ġltmp": 7688,
      "Ġuuid": 7689,
      "ĠFormat": 7690,
      "Ġgen": 7691,
      "ĠCesSystemException": 7692,
      "ĠrequestUtils": 7693,
      "DES": 7694,
      "Builders": 7695,
      "htm": 7696,
      "portal": 7697,
      "getAuth": 7698,
      "ĠstrLine": 7699,
      "ĠWM": 7700,
      "imation": 7701,
      "Ġ\"\\\\": 7702,
      "tdb": 7703,
      "Modifier": 7704,
      "ĠdbResultSet": 7705,
      "Ġaddr": 7706,
      "Services": 7707,
      "mailContact": 7708,
      "DOC": 7709,
      "Ġtit": 7710,
      "scanner": 7711,
      "ĠUSER": 7712,
      "MONTH": 7713,
      "ĠconfigFile": 7714,
      "ĠbasePath": 7715,
      "searcher": 7716,
      "setContents": 7717,
      "Ġportlet": 7718,
      "render": 7719,
      "Ġfinished": 7720,
      "ĠlocalFile": 7721,
      "ĠmaxCount": 7722,
      "Comments": 7723,
      "LAY": 7724,
      "ĠSettings": 7725,
      "Verb": 7726,
      "ĠExecute": 7727,
      "FOLDER": 7728,
      "manifest": 7729,
      "Ġseatupdstr": 7730,
      "control": 7731,
      "ĠcomponentName": 7732,
      "packageName": 7733,
      "ditional": 7734,
      "reeting": 7735,
      "CONFIGUR": 7736,
      "getSystemResource": 7737,
      "uncion": 7738,
      "Ġprevious": 7739,
      "Ġartifact": 7740,
      "Ġgeo": 7741,
      "FLAG": 7742,
      "OBJECTNAME": 7743,
      "OutageWriter": 7744,
      "ĠInterruptedException": 7745,
      "ĠNetworkException": 7746,
      "Ratings": 7747,
      "TERNAL": 7748,
      "Smart": 7749,
      "DeploymentConfiguration": 7750,
      "Annotation": 7751,
      "javascript": 7752,
      "ORGAN": 7753,
      "rshiftdb": 7754,
      "').": 7755,
      "70": 7756,
      ">\"));": 7757,
      "?)": 7758,
      "Cast": 7759,
      "Criteria": 7760,
      "Drop": 7761,
      "GORI": 7762,
      "IClasspathEntry": 7763,
      "JET": 7764,
      "Missing": 7765,
      "NC": 7766,
      "Pdf": 7767,
      "])));": 7768,
      "bs": 7769,
      "bank": 7770,
      "rw": 7771,
      "vm": 7772,
      "ĠEntry": 7773,
      "ĠKEY": 7774,
      "inux": 7775,
      "Statistics": 7776,
      "Ġcuri": 7777,
      "Ġcsv": 7778,
      "ced": 7779,
      "Ġtx": 7780,
      "Ġ\"=\"))": 7781,
      "alumni": 7782,
      "FileException": 7783,
      "Ġfatal": 7784,
      "dev": 7785,
      "ĠStringUtil": 7786,
      "Ġsdf": 7787,
      "Ġskip": 7788,
      "setFollowRedirects": 7789,
      "islo": 7790,
      "ĠSO": 7791,
      "ĠSwing": 7792,
      "ingular": 7793,
      "Ġvideo": 7794,
      "span": 7795,
      "Ġwe": 7796,
      "unique": 7797,
      "ĠURLClassLoader": 7798,
      "ĠbyteHash": 7799,
      "ĠjointBox": 7800,
      "ToObject": 7801,
      "tical": 7802,
      "ĠmdAlgorithm": 7803,
      "Lists": 7804,
      "ĠPool": 7805,
      "ĠAV": 7806,
      "ĠTri": 7807,
      "ĠThe": 7808,
      "ROP": 7809,
      "Ġglobal": 7810,
      "Dirs": 7811,
      "ĠdataResource": 7812,
      "Urls": 7813,
      "DEFL": 7814,
      "entryName": 7815,
      "copying": 7816,
      "dataResource": 7817,
      "Thumb": 7818,
      "ĠVer": 7819,
      "XMLDocument": 7820,
      "ĠDefinition": 7821,
      "ĠtmpPref": 7822,
      "ĠassertFalse": 7823,
      "imetype": 7824,
      "ERENCE": 7825,
      "Ġ\",\");": 7826,
      "ĠtargetDirectory": 7827,
      "Ġkeystore": 7828,
      "getCall": 7829,
      "ĠcurrentRow": 7830,
      "precis": 7831,
      "contents": 7832,
      "contentLength": 7833,
      "ĠstatusLine": 7834,
      "MAIL": 7835,
      "DOCU": 7836,
      "Ġnumero": 7837,
      "area": 7838,
      "iety": 7839,
      "AGENT": 7840,
      "ĠUs": 7841,
      "ĠrowObject": 7842,
      "finer": 7843,
      "ĠCookie": 7844,
      "Ġlastname": 7845,
      "Plugins": 7846,
      "StartElement": 7847,
      "Ġlinks": 7848,
      "Ġbais": 7849,
      "Commands": 7850,
      "Validation": 7851,
      "Ġopening": 7852,
      "getHeaderFields": 7853,
      "ChangeListener": 7854,
      "Register": 7855,
      "configure": 7856,
      "Ġ[%": 7857,
      "APP": 7858,
      "processor": 7859,
      "Labels": 7860,
      "binary": 7861,
      "Ġ\"','\"": 7862,
      "getUsername": 7863,
      "utions": 7864,
      "Ġapplicant": 7865,
      "libDatatype": 7866,
      "Ġreference": 7867,
      "TargetException": 7868,
      "PatternsTo": 7869,
      "ĠDictionary": 7870,
      "statement": 7871,
      "ĠsiteURL": 7872,
      "Variety": 7873,
      "Savepoint": 7874,
      "ĠmatchersTo": 7875,
      "SUB": 7876,
      "Ġcorrect": 7877,
      "ĠComposite": 7878,
      "Datos": 7879,
      "ĠencryptedPassword": 7880,
      "Ġartista": 7881,
      "helloWorld": 7882,
      "ExportException": 7883,
      "ĠprefiltersTo": 7884,
      "getEventVariety": 7885,
      "ĠcanalFuente": 7886,
      "Ġcalculate": 7887,
      "CaptureLinksWithinTags": 7888,
      "CaptureLinksWithinScripts": 7889,
      "UNKNOWN": 7890,
      "vocationTargetException": 7891,
      "Ġmetaprops": 7892,
      "ĠBox": 7893,
      "ReasonType": 7894,
      "ĠImportExportException": 7895,
      "WRITE": 7896,
      "getRealPath": 7897,
      "braLink": 7898,
      "getResponseBodyAsStream": 7899,
      "Ġbgcolor": 7900,
      "ĠSnifflibDatatype": 7901,
      "CONFIGURATION": 7902,
      "ORGANIZE": 7903,
      "ĠtmpPrefiltersTo": 7904,
      "ĠSnifflibDatatypeException": 7905,
      "''": 7906,
      "ADE": 7907,
      "Cell": 7908,
      "Emp": 7909,
      "Hand": 7910,
      "JT": 7911,
      "KV": 7912,
      "LDAP": 7913,
      "PY": 7914,
      "Play": 7915,
      "Son": 7916,
      "Transport": 7917,
      "Video": 7918,
      "Wiki": 7919,
      "button": 7920,
      "eving": 7921,
      "hy": 7922,
      "jec": 7923,
      "mor": 7924,
      "nail": 7925,
      "photo": 7926,
      "sax": 7927,
      "slt": 7928,
      "Äį": 7929,
      "Ġam": 7930,
      "ĠUnsupported": 7931,
      "ĠStmt": 7932,
      "ĠComponent": 7933,
      "invalid": 7934,
      "Ġci": 7935,
      "getObject": 7936,
      "getEncoding": 7937,
      "getBuild": 7938,
      "cene": 7939,
      "ssl": 7940,
      "enten": 7941,
      "ses": 7942,
      "Ġtool": 7943,
      "(\"*": 7944,
      "roler": 7945,
      "Invoc": 7946,
      "Ġest": 7947,
      "Ġnonce": 7948,
      "limit": 7949,
      "Remaining": 7950,
      "Ġinclude": 7951,
      "setException": 7952,
      "Ġdot": 7953,
      "istered": 7954,
      "Ġmethods": 7955,
      "ident": 7956,
      "idden": 7957,
      "Ġvt": 7958,
      "asList": 7959,
      "ood": 7960,
      "dium": 7961,
      "dialog": 7962,
      "Ġjis": 7963,
      "usic": 7964,
      "Ġau": 7965,
      "Ġaut": 7966,
      "addr": 7967,
      "ĠgetText": 7968,
      "ĠgetDocument": 7969,
      "Listing": 7970,
      "Ġrss": 7971,
      "ĠHttpParams": 7972,
      "ĠMethod": 7973,
      "Ġprovided": 7974,
      "ĠPi": 7975,
      "ĠAgent": 7976,
      "ica": 7977,
      "Entrada": 7978,
      "ĠTable": 7979,
      "ĠInvalid": 7980,
      "Ġsep": 7981,
      "createElement": 7982,
      "RESOURCE": 7983,
      "parseFloat": 7984,
      "Selector": 7985,
      "quiv": 7986,
      "getAutoCommit": 7987,
      "ĠVelocity": 7988,
      "ĠLists": 7989,
      "HANG": 7990,
      "Ġzoom": 7991,
      "Activity": 7992,
      "Activator": 7993,
      "BaseURL": 7994,
      "Ġroute": 7995,
      "Ġ\"\\\"\";": 7996,
      "ElementsSchemaAndTableName": 7997,
      "SITI": 7998,
      "PROTO": 7999,
      "Ġdownloadlink": 8000,
      "FILES": 8001,
      "finish": 8002,
      "Ġlimit": 8003,
      "keleton": 8004,
      "Ġ50": 8005,
      "Sample": 8006,
      "UploadServlet": 8007,
      "EXCEPTION": 8008,
      "OPER": 8009,
      "ualComple": 8010,
      "ldap": 8011,
      "SocketAddress": 8012,
      "Ġcndef": 8013,
      "ĠDirectory": 8014,
      "manager": 8015,
      "Ġworkspace": 8016,
      "ationsSchemaAndTableName": 8017,
      "ĠNullProgressMonitor": 8018,
      "ĠinsSt": 8019,
      "Topic": 8020,
      "srb": 8021,
      "ĠGeneric": 8022,
      "getWorkspace": 8023,
      "getPhone": 8024,
      "Marker": 8025,
      "LOBAL": 8026,
      "waitFor": 8027,
      "Ġcalculation": 8028,
      "ategoria": 8029,
      "GRAPE": 8030,
      "Places": 8031,
      "functions": 8032,
      "evaluate": 8033,
      "Electronique": 8034,
      "ebugPrintln": 8035,
      "INTEGER": 8036,
      "SmartGRAPE": 8037,
      "InvocationsSchemaAndTableName": 8038,
      "SITIVE": 8039,
      "ualCompleto": 8040,
      "*)": 8041,
      "=&": 8042,
      "CRI": 8043,
      "DDL": 8044,
      "EL": 8045,
      "Hy": 8046,
      "MC": 8047,
      "MF": 8048,
      "Methods": 8049,
      "NET": 8050,
      "Ronda": 8051,
      "Sib": 8052,
      "Slash": 8053,
      "Sending": 8054,
      "WA": 8055,
      "XPath": 8056,
      "YSQL": 8057,
      "clipse": 8058,
      "driver": 8059,
      "hour": 8060,
      "handler": 8061,
      "jl": 8062,
      "oin": 8063,
      "olation": 8064,
      "rb": 8065,
      "rage": 8066,
      "symbol": 8067,
      "vies": 8068,
      "wrap": 8069,
      "ĠChannel": 8070,
      "ĠPa": 8071,
      "Ġlow": 8072,
      "ĠArchive": 8073,
      "ĠHTML": 8074,
      "incorrect": 8075,
      "Stage": 8076,
      "Ġctxt": 8077,
      "getNew": 8078,
      "Ġ\"))": 8079,
      "lack": 8080,
      "Ġpss": 8081,
      "Expected": 8082,
      "ric": 8083,
      "geo": 8084,
      "Ġinternal": 8085,
      "Ġblob": 8086,
      "Ġsupp": 8087,
      "Ġsingle": 8088,
      "setup": 8089,
      "setSystemId": 8090,
      "ĠDb": 8091,
      "ĠDes": 8092,
      "urlconnection": 8093,
      "isS": 8094,
      "Ġstock": 8095,
      "Ġstrip": 8096,
      "pell": 8097,
      "MessageSymbol": 8098,
      "ĠintResult": 8099,
      "Ġ11": 8100,
      "sulta": 8101,
      "availability": 8102,
      "Ġcoach": 8103,
      "ĠMail": 8104,
      "ĠMulti": 8105,
      "ersistent": 8106,
      "undles": 8107,
      "ĠreadLen": 8108,
      "../": 8109,
      "ĠFtp": 8110,
      "Setup": 8111,
      "SEN": 8112,
      "STO": 8113,
      "tente": 8114,
      "Reading": 8115,
      "Maps": 8116,
      "?,\"": 8117,
      "XMLReader": 8118,
      "getStringValue": 8119,
      "baseURL": 8120,
      "FromUrl": 8121,
      "Begin": 8122,
      "currentColumn": 8123,
      "Ġ\"\\\\\"": 8124,
      "gnoring": 8125,
      "Ġ400": 8126,
      "ĠzipOutputStream": 8127,
      "Locations": 8128,
      "ĠpathDst": 8129,
      "Ġnome": 8130,
      "Ġservers": 8131,
      "FolderName": 8132,
      "Ġdisconnect": 8133,
      "ĠtextArea": 8134,
      "mitente": 8135,
      "1111": 8136,
      "getMsg": 8137,
      "==========": 8138,
      "player": 8139,
      "Ġlive": 8140,
      "ĊĠĠĠĠĠĠĠĠĠĠĠĠĠĠĠĠĠĠĠĠĠĠĠĠĠĠĠĠĠĠĠĠĠĠĠĠĠĠĠĠĠĠĠĠĠĠĠĠĠĠĠĠĠĠĠĠĠĠĠĠĠĠĠ": 8141,
      "Ġwithout": 8142,
      "getAttributes": 8143,
      "ĠEngine": 8144,
      "Validating": 8145,
      "Threads": 8146,
      "Registro": 8147,
      "findForward": 8148,
      "processing": 8149,
      "ĠcommandLine": 8150,
      "ilial": 8151,
      "VIE": 8152,
      "MenuItem": 8153,
      "ĠiconURL": 8154,
      "ĠbubbleSort": 8155,
      "Ġescookie": 8156,
      "ĠSecurity": 8157,
      "ĠlatestVersion": 8158,
      "racle": 8159,
      "ĠGetMethod": 8160,
      "marshaller": 8161,
      "Running": 8162,
      "fechaSystem": 8163,
      "ĠPostParameter": 8164,
      "ĠSSLContext": 8165,
      "?,?)\";": 8166,
      "Peer": 8167,
      "getFullPath": 8168,
      "prj": 8169,
      "ĠgetNextLine": 8170,
      "Ġattrs": 8171,
      "Declaration": 8172,
      "Enclosing": 8173,
      "uplicate": 8174,
      "GateConstants": 8175,
      "CodeGenPlugin": 8176,
      "Sibling": 8177,
      ",\");": 8178,
      "Actual": 8179,
      "CMD": 8180,
      "Day": 8181,
      "Google": 8182,
      "LAN": 8183,
      "Mig": 8184,
      "Mutable": 8185,
      "Nm": 8186,
      "PJ": 8187,
      "PAGE": 8188,
      "Please": 8189,
      "Render": 8190,
      "Sys": 8191,
      "WIN": 8192,
      "dump": 8193,
      "hs": 8194,
      "just": 8195,
      "mol": 8196,
      "uuid": 8197,
      "vendor": 8198,
      "wit": 8199,
      "zit": 8200,
      "zos": 8201,
      "Ġet": 8202,
      "eto": 8203,
      "Ġ})": 8204,
      "Ġ(-": 8205,
      "getReader": 8206,
      "ceive": 8207,
      "orno": 8208,
      "newUser": 8209,
      "Ġ\"\".": 8210,
      "Ġpublish": 8211,
      "InstantiationException": 8212,
      "lite": 8213,
      "Ġredirect": 8214,
      "riend": 8215,
      "Ġsuc": 8216,
      "Ġsaving": 8217,
      "ĠsWhere": 8218,
      "setMethod": 8219,
      "setLocation": 8220,
      "ĠDecimal": 8221,
      "Ġmer": 8222,
      "ĠoutFileName": 8223,
      "ĠoutBuf": 8224,
      "ĠSchema": 8225,
      "ids": 8226,
      "execut": 8227,
      "ĠurlStream": 8228,
      "Ġvector": 8229,
      "Ġwriting": 8230,
      "dims": 8231,
      "izing": 8232,
      "Ġauto": 8233,
      "ĠaRecipient": 8234,
      "PathFile": 8235,
      "ToZip": 8236,
      "texts": 8237,
      "ĠoAddr": 8238,
      "Ġproblema": 8239,
      "ashboard": 8240,
      "Fail": 8241,
      "ĠdestTableName": 8242,
      "LET": 8243,
      "ĠJob": 8244,
      "rivile": 8245,
      "ĠFe": 8246,
      "Ġselection": 8247,
      "master": 8248,
      "ĠhttpServletResponse": 8249,
      "ĠLO": 8250,
      "ĠCertificate": 8251,
      "Configur": 8252,
      "KeySpec": 8253,
      "rolling": 8254,
      "ĠtheString": 8255,
      "ĠtheConn": 8256,
      "users": 8257,
      "userId": 8258,
      "ĠassertNull": 8259,
      "TED": 8260,
      "TempDir": 8261,
      "accept": 8262,
      "Ġnoise": 8263,
      "(\".\"))": 8264,
      "Andamento": 8265,
      "ProgressBar": 8266,
      "rslt": 8267,
      "LinkName": 8268,
      "ColumnName": 8269,
      "ĠUN": 8270,
      "ĠUUID": 8271,
      "messages": 8272,
      "EditDomain": 8273,
      "ĠprojectDescription": 8274,
      "Isolation": 8275,
      "ĠXMLfunctions": 8276,
      "Shader": 8277,
      "THM": 8278,
      "ĠserviceID": 8279,
      "OpenXMLDocument": 8280,
      "ĠLinkType": 8281,
      "Ġabsolute": 8282,
      "ĠencryptPassword": 8283,
      "Referer": 8284,
      "structions": 8285,
      "proxyHost": 8286,
      "ĠDiff": 8287,
      "ReturnCode": 8288,
      "Ġattachments": 8289,
      "LOCATION": 8290,
      "ĠSocketException": 8291,
      "video": 8292,
      "Ġprice": 8293,
      "prefs": 8294,
      "ĠBitmapFactory": 8295,
      "?,?)\");": 8296,
      "ĠFormAttachment": 8297,
      "stats": 8298,
      "ĠSensor": 8299,
      "ĠmiLinea": 8300,
      "Ġletra": 8301,
      "ReverseLookup": 8302,
      "ĠMODE": 8303,
      "lucz": 8304,
      "lignmentType": 8305,
      "Mercado": 8306,
      "GORITHM": 8307,
      "ĠAVAIL": 8308,
      "ĠapplicantInfo": 8309,
      "ĠctxtNode": 8310,
      "ĠDecimalFormat": 8311,
      ",'": 8312,
      "/\"))": 8313,
      "2000": 8314,
      "43": 8315,
      "@\"": 8316,
      "ACH": 8317,
      "Frit": 8318,
      "Owner": 8319,
      "Pull": 8320,
      "PHR": 8321,
      "Rati": 8322,
      "Room": 8323,
      "Sig": 8324,
      "Skip": 8325,
      "SMS": 8326,
      "Slave": 8327,
      "Tri": 8328,
      "Ul": 8329,
      "Via": 8330,
      "YY": 8331,
      "customer": 8332,
      "dx": 8333,
      "fz": 8334,
      "hr": 8335,
      "jpeg": 8336,
      "opt": 8337,
      "pw": 8338,
      "pst": 8339,
      "tar": 8340,
      "xC": 8341,
      "yState": 8342,
      "å¤": 8343,
      "Ġ64": 8344,
      "inLine": 8345,
      "etSocketAddress": 8346,
      "Std": 8347,
      "Ġce": 8348,
      "Ġcustomer": 8349,
      "alVariables": 8350,
      "(\"ï¿½ï¿½ï¿½ï¿½": 8351,
      "Inf": 8352,
      "Ġenemy": 8353,
      "ĠnatureIds": 8354,
      "lid": 8355,
      "Ġregion": 8356,
      "dered": 8357,
      "Repo": 8358,
      "Reviews": 8359,
      "Ġine": 8360,
      "Constructor": 8361,
      "setCode": 8362,
      "ĠmDigest": 8363,
      "Ġconstructor": 8364,
      "idency": 8365,
      "ĠurlCon": 8366,
      "mysql": 8367,
      "term": 8368,
      "ysical": 8369,
      "ilha": 8370,
      "uncoes": 8371,
      "Ġholding": 8372,
      "directives": 8373,
      "\\\">": 8374,
      "[]>": 8375,
      "fileLength": 8376,
      "nameValuePairs": 8377,
      "addKV": 8378,
      "agic": 8379,
      "andard": 8380,
      "ĠItem": 8381,
      "ĠoM": 8382,
      "Ġostream": 8383,
      "Ġruta": 8384,
      "romat": 8385,
      "edFile": 8386,
      "Face": 8387,
      "getResult": 8388,
      "ĠJFrit": 8389,
      "Ġ::": 8390,
      "ĠnotNeededRsrc": 8391,
      "DirPath": 8392,
      "Ġarquivo": 8393,
      "ĠsourceOut": 8394,
      "ĠLi": 8395,
      "SESSION": 8396,
      "ĠdataSB": 8397,
      "strLine": 8398,
      "START": 8399,
      "ĠGeck": 8400,
      "Season": 8401,
      "ĠuserData": 8402,
      "shake": 8403,
      "Formatter": 8404,
      "Ġalt": 8405,
      "ĠsetProperty": 8406,
      "ĠDeleted": 8407,
      "FIC": 8408,
      "axis": 8409,
      "encoded": 8410,
      "encodeBase": 8411,
      "Ġentryname": 8412,
      "Overwrite": 8413,
      "Ġioex": 8414,
      "Ġcontrol": 8415,
      "comb": 8416,
      "nome": 8417,
      "())))": 8418,
      "ĠjarName": 8419,
      "Pages": 8420,
      "getFtp": 8421,
      "DIRE": 8422,
      "scale": 8423,
      "mbed": 8424,
      "doIt": 8425,
      "OnClose": 8426,
      "getMax": 8427,
      "ĠmethodName": 8428,
      "saved": 8429,
      "ĠauthToken": 8430,
      "Ġclosed": 8431,
      "docController": 8432,
      "ASES": 8433,
      "ĠlocalName": 8434,
      "255": 8435,
      "avig": 8436,
      "successful": 8437,
      "changed": 8438,
      "groups": 8439,
      "Fee": 8440,
      "orpus": 8441,
      "Ġscale": 8442,
      "Ġ\")\";": 8443,
      "plugins": 8444,
      "Ġcallback": 8445,
      "Ġcomments": 8446,
      "SACTION": 8447,
      "CoreException": 8448,
      "METRI": 8449,
      "CHECK": 8450,
      "ĠregistroModificado": 8451,
      "getChildren": 8452,
      "Facade": 8453,
      "Ġpossible": 8454,
      "Ġtransferred": 8455,
      "ĠGrammarString": 8456,
      "Ġ\"\\\"]/\"": 8457,
      "Ġsoap": 8458,
      "help": 8459,
      "getPhrase": 8460,
      "ancelled": 8461,
      "resolveFile": 8462,
      "ĠgetContentPane": 8463,
      "regionMatches": 8464,
      "MimeMessage": 8465,
      "ĠpredicateMI": 8466,
      "persLong": 8467,
      "ĠToast": 8468,
      "EnvironmentalVariables": 8469,
      "ĠSTATUS": 8470,
      "lapsedTime": 8471,
      "ĠhttpUrlConnection": 8472,
      "Trying": 8473,
      "BYTE": 8474,
      "HostnameVerifier": 8475,
      "Ġuee": 8476,
      "lefone": 8477,
      "12345678": 8478,
      "ynchrnServerVO": 8479,
      "uncionario": 8480,
      "SENSITIVE": 8481,
      "ĠEngineering": 8482,
      "PHRASES": 8483,
      "Ratio": 8484,
      "ĠJFritz": 8485,
      "ĠGecko": 8486,
      "SeasonNum": 8487,
      "';": 8488,
      "/@": 8489,
      "/\";": 8490,
      "/>\");": 8491,
      "300": 8492,
      ">\".": 8493,
      "Ace": 8494,
      "BUTE": 8495,
      "CLIENT": 8496,
      "ELE": 8497,
      "EOF": 8498,
      "Episode": 8499,
      "Greeting": 8500,
      "IProgress": 8501,
      "NIO": 8502,
      "OAuth": 8503,
      "RMA": 8504,
      "RPC": 8505,
      "Trim": 8506,
      "USE": 8507,
      "bre": 8508,
      "bot": 8509,
      "bench": 8510,
      "clazz": 8511,
      "hing": 8512,
      "ks": 8513,
      "lus": 8514,
      "nl": 8515,
      "oice": 8516,
      "rst": 8517,
      "rpc": 8518,
      "yc": 8519,
      "ä»": 8520,
      "ĊĠĠĠĠĠĠ": 8521,
      "ĠTag": 8522,
      "ĠConnect": 8523,
      "Ġlookup": 8524,
      "onical": 8525,
      "onito": 8526,
      "ermission": 8527,
      "Static": 8528,
      "stao": 8529,
      "getE": 8530,
      "getPro": 8531,
      "getService": 8532,
      "getItem": 8533,
      "sss": 8534,
      "att": 8535,
      "segment": 8536,
      "Ġtrim": 8537,
      "FileServer": 8538,
      "adium": 8539,
      "rot": 8540,
      "ĠnewDocument": 8541,
      "lati": 8542,
      "ĠpRequest": 8543,
      "Inicial": 8544,
      "Ġejb": 8545,
      "liver": 8546,
      "chart": 8547,
      "Ġbl": 8548,
      "ĠFilename": 8549,
      "ĠDAT": 8550,
      "Ġmat": 8551,
      "Ġcons": 8552,
      "ĠconDestino": 8553,
      "Ġcontainer": 8554,
      "InputStreamReader": 8555,
      "copied": 8556,
      "cookies": 8557,
      "excesssrc": 8558,
      "peza": 8559,
      "constructor": 8560,
      "Ġha": 8561,
      "\\\"?": 8562,
      "Envelope": 8563,
      "otype": 8564,
      "fileSize": 8565,
      "usuario": 8566,
      "errorMessage": 8567,
      "Ġoper": 8568,
      "Ġ(!\"": 8569,
      "Ġrb": 8570,
      "--\");": 8571,
      "mmss": 8572,
      "INK": 8573,
      "Ġlst": 8574,
      "Ġencryption": 8575,
      "ĠTH": 8576,
      "ĠTIPO": 8577,
      "ĠFuncoes": 8578,
      "Ġsecond": 8579,
      "rivateKey": 8580,
      "Ġgiven": 8581,
      "TPUT": 8582,
      "Users": 8583,
      "REL": 8584,
      "Ġdoi": 8585,
      "Without": 8586,
      "indexCounter": 8587,
      "ĠuserAdd": 8588,
      "Ġfasta": 8589,
      "ĠsqlImpl": 8590,
      "FIELD": 8591,
      "javax": 8592,
      "Ġ\"':": 8593,
      "Ġ\"'>\"": 8594,
      "phens": 8595,
      "dules": 8596,
      "getCell": 8597,
      "ignore": 8598,
      "actor": 8599,
      "Interval": 8600,
      "Ġ80": 8601,
      "Ġmyargs": 8602,
      "Ġround": 8603,
      "PROJECT": 8604,
      "getClassName": 8605,
      "Forwar": 8606,
      "rigger": 8607,
      "retry": 8608,
      "jarFile": 8609,
      "jarEntry": 8610,
      "ĠlastVersion": 8611,
      "ĠThis": 8612,
      "keep": 8613,
      "TICAL": 8614,
      "RIBUTE": 8615,
      "PARATOR": 8616,
      "Records": 8617,
      "Ġendpoint": 8618,
      "Ġswap": 8619,
      "clearParameters": 8620,
      "AppServiceImpl": 8621,
      "Ġiteration": 8622,
      "Ġstringbuffer": 8623,
      "Visitor": 8624,
      "Ġelements": 8625,
      "notNull": 8626,
      "Ġrecords": 8627,
      "atible": 8628,
      "firstname": 8629,
      "offer": 8630,
      "Limits": 8631,
      "Limpeza": 8632,
      "Ġmark": 8633,
      "('/')": 8634,
      "Question": 8635,
      "Questao": 8636,
      "IFEST": 8637,
      "ajah": 8638,
      "stylesheet": 8639,
      "ĠquebraLink": 8640,
      "Scale": 8641,
      "ĠApplicationException": 8642,
      "decIdent": 8643,
      "availcoach": 8644,
      "ĠActivator": 8645,
      "ĠTreeMap": 8646,
      "omething": 8647,
      "serialize": 8648,
      "ategories": 8649,
      "SPECTRUM": 8650,
      "ĠjetEmitter": 8651,
      "ordinates": 8652,
      "getActive": 8653,
      "ĠTemplate": 8654,
      "Edges": 8655,
      "tickets": 8656,
      "ISHED": 8657,
      "Detalhado": 8658,
      "DEFLATED": 8659,
      "helloWorldPath": 8660,
      "ĠproblemaDetalhado": 8661,
      "InicialDestino": 8662,
      "LimpezaInicialDestino": 8663,
      "!\\": 8664,
      "${": 8665,
      "'\",": 8666,
      "?)\");": 8667,
      "Back": 8668,
      "LATE": 8669,
      "Material": 8670,
      "NU": 8671,
      "RDF": 8672,
      "Surname": 8673,
      "Trail": 8674,
      "Torneo": 8675,
      "WD": 8676,
      "Writing": 8677,
      "XLS": 8678,
      "_);": 8679,
      "jp": 8680,
      "mine": 8681,
      "mstr": 8682,
      "normal": 8683,
      "oRSet": 8684,
      "rating": 8685,
      "sUrl": 8686,
      "two": 8687,
      "uu": 8688,
      "zout": 8689,
      "Ä¼": 8690,
      "ĠQu": 8691,
      "ĠUPDATE": 8692,
      "ĠLEFT": 8693,
      "Ġanno": 8694,
      "era": 8695,
      "Ġcv": 8696,
      "Ġcstm": 8697,
      "getException": 8698,
      "getToken": 8699,
      "getInput": 8700,
      "getConexion": 8701,
      "allow": 8702,
      "(\"--------------------------------": 8703,
      "adapter": 8704,
      "ĠnewFileName": 8705,
      "Ġnewgen": 8706,
      "ĠnewOutageWriter": 8707,
      "Ġepi": 8708,
      "Ġejec": 8709,
      "Ġnet": 8710,
      "loor": 8711,
      "challenge": 8712,
      "Real": 8713,
      "outPath": 8714,
      "entor": 8715,
      "Ġsd": 8716,
      "Ġsf": 8717,
      "Ġsx": 8718,
      "uess": 8719,
      "setDone": 8720,
      "Ġdc": 8721,
      "Ġdid": 8722,
      "isOpen": 8723,
      "Ġmue": 8724,
      "cogn": 8725,
      "rowindexset": 8726,
      "ras": 8727,
      "raction": 8728,
      "Ġstx": 8729,
      "ĠurlBuilder": 8730,
      "Ġwrap": 8731,
      "Ġhb": 8732,
      "abst": 8733,
      "izes": 8734,
      "Ġdelta": 8735,
      "ipping": 8736,
      "ĠgetRequest": 8737,
      "ĠgetLog": 8738,
      "ĠgetUser": 8739,
      "Ġcoords": 8740,
      "ĠISO": 8741,
      "ĠIProgressMonitor": 8742,
      "ĠIJavaProject": 8743,
      "Ġrank": 8744,
      "ĠHttpException": 8745,
      "ĠHttpSession": 8746,
      "Ġproto": 8747,
      "Deleg": 8748,
      "ĠAn": 8749,
      "Ġdirect": 8750,
      "ROLL": 8751,
      "ĠField": 8752,
      "ĠRobot": 8753,
      "ĠRollback": 8754,
      "ĠLOC": 8755,
      "modif": 8756,
      "STA": 8757,
      "keystore": 8758,
      "destOutFile": 8759,
      "copyBytes": 8760,
      "Section": 8761,
      "Molecule": 8762,
      "ĠuserID": 8763,
      "FileNames": 8764,
      "ternet": 8765,
      "ĠWork": 8766,
      "ĠtmpDmsRelationalWord": 8767,
      "ĠsqlE": 8768,
      "Ġmessagedigest": 8769,
      "Ġzipentry": 8770,
      "getPage": 8771,
      "Levels": 8772,
      "access": 8773,
      "ĠcurrentFilename": 8774,
      "UPLOAD": 8775,
      "Ġunable": 8776,
      "Ġattemp": 8777,
      "DesErr": 8778,
      "127": 8779,
      "POP": 8780,
      "='/?": 8781,
      "ĠwriteFile": 8782,
      "ĠxmlStreamWriter": 8783,
      "Localizer": 8784,
      "MODI": 8785,
      "ontus": 8786,
      "Ġspdesttillcnt": 8787,
      "ĠpostMethod": 8788,
      "Workspace": 8789,
      "Downloaded": 8790,
      "enticate": 8791,
      "getTimeInMillis": 8792,
      "Ġsubfield": 8793,
      "Ġlocations": 8794,
      "Ġlevel": 8795,
      "passar": 8796,
      "vars": 8797,
      "columnName": 8798,
      "Ġchanged": 8799,
      "ThisPage": 8800,
      "Ġ'/');": 8801,
      "getChildNodes": 8802,
      "getNome": 8803,
      "JsonString": 8804,
      "FullPath": 8805,
      "Pipeline": 8806,
      "ĠAttributes": 8807,
      "Ġpkg": 8808,
      "aRepassar": 8809,
      "Mark": 8810,
      "Packet": 8811,
      "getPrimaryKey": 8812,
      "setLayoutData": 8813,
      "ribution": 8814,
      "setBigDecimalAtName": 8815,
      "Ġpermut": 8816,
      "ĠjetCompiler": 8817,
      "setMaximum": 8818,
      "chemas": 8819,
      "ĠgiveResourceSet": 8820,
      "Ġrisposta": 8821,
      "ĠLIKE": 8822,
      "Ġarchetype": 8823,
      "FORMAT": 8824,
      "ATTRIBUTE": 8825,
      "Ð°Ð": 8826,
      "Cuerr": 8827,
      "pearance": 8828,
      "precisaRepassar": 8829,
      "DOCUMENT": 8830,
      "Sonido": 8831,
      "Hyphens": 8832,
      "rollingGraphicalViewer": 8833,
      "ĠJFritzUtils": 8834,
      "ELEMENT": 8835,
      "IProgressConstants": 8836,
      "Ġejecuto": 8837,
      "ĠRobotList": 8838,
      ".<": 8839,
      ";\\": 8840,
      "?)\";": 8841,
      "AU": 8842,
      "ALE": 8843,
      "BID": 8844,
      "Boundary": 8845,
      "Cred": 8846,
      "CAS": 8847,
      "CCESS": 8848,
      "FFIX": 8849,
      "Flags": 8850,
      "Guid": 8851,
      "Ignoring": 8852,
      "JOptionPane": 8853,
      "Na": 8854,
      "Onto": 8855,
      "PD": 8856,
      "Plot": 8857,
      "PLA": 8858,
      "PDF": 8859,
      "SD": 8860,
      "Sizes": 8861,
      "TD": 8862,
      "audio": 8863,
      "bn": 8864,
      "ean": 8865,
      "eval": 8866,
      "gc": 8867,
      "gy": 8868,
      "hi": 8869,
      "hu": 8870,
      "have": 8871,
      "ico": 8872,
      "icode": 8873,
      "iCod": 8874,
      "mx": 8875,
      "ossible": 8876,
      "sk": 8877,
      "slim": 8878,
      "zis": 8879,
      "rem": 8880,
      "reur": 8881,
      "nes": 8882,
      "getTo": 8883,
      "getState": 8884,
      "getUri": 8885,
      "getTemplate": 8886,
      "getComponent": 8887,
      "getLocale": 8888,
      "Ġts": 8889,
      "alg": 8890,
      "alk": 8891,
      "ĠnewVersion": 8892,
      "Ġplot": 8893,
      "ĠpAndamento": 8894,
      "Ġregex": 8895,
      "Ġreceiver": 8896,
      "Ġinc": 8897,
      "atest": 8898,
      "Ġsal": 8899,
      "Console": 8900,
      "ĠFileTransfer": 8901,
      "Ġdas": 8902,
      "thumb": 8903,
      "Ġmol": 8904,
      "Ġmetric": 8905,
      "URLs": 8906,
      "Ġconstraints": 8907,
      "ĠSV": 8908,
      "exchange": 8909,
      "Ġ!(": 8910,
      "tour": 8911,
      "ĠurlIn": 8912,
      "ĠBad": 8913,
      "pedia": 8914,
      "sper": 8915,
      "Ġwant": 8916,
      "asure": 8917,
      "quen": 8918,
      "verb": 8919,
      "verte": 8920,
      "Ġja": 8921,
      "TypeId": 8922,
      "Ġaxis": 8923,
      "oller": 8924,
      "tedFile": 8925,
      "errors": 8926,
      "loading": 8927,
      "ĠMET": 8928,
      "ĠPRE": 8929,
      "leanup": 8930,
      "getReason": 8931,
      "Ġ''": 8932,
      "Album": 8933,
      "Ġdesttillcnt": 8934,
      "proc": 8935,
      "ĠTr": 8936,
      "ĠTar": 8937,
      "ĠInventory": 8938,
      "ĠInternetAddress": 8939,
      "..\");": 8940,
[...]
